#version: 0.2
e r
e n</w>
e n
i n
c h
a n
t h
e r</w>
u n
t i
e s
o n
l i
e i
d i
s t
a r
o r
th e</w>
a l
r e
s ch
e l
r o
s i
e s</w>
d er</w>
c h</w>
i n</w>
o n</w>
di e</w>
a t
e in
a u
w i
r i
d e
an d</w>
t o</w>
o f</w>
un d</w>
r a
a s</w>
in g</w>
e d</w>
o m
u r
a s
g e
a ti
v er
a t</w>
a n</w>
en ,</w>
d en</w>
i t
b e
a l</w>
l e
en t
i s</w>
o l
i s
d er
u s
a b
t er
un g</w>
o r</w>
o u
en .</w>
t en</w>
h r
p o
un g
t e</w>
z u</w>
a m
e c
t e
i l
i t</w>
g i
th at</w>
n i
l o
n o
n e
e m
v e</w>
en t</w>
a c
f ü
p ro
t ,</w>
f f
l y</w>
li ch
g e</w>
l e</w>
ati on
e t
v on</w>
T h
v i
d e</w>
ti on
ch t</w>
sch en</w>
e h
w h
s u
ein e</w>
r es
r u
s e</w>
z u
w er
i g
s ,</w>
m a
g en
c i
u l
t h</w>
a f
’ s</w>
e d
f or
s p
c on
an d
f or</w>
b er
a r</w>
g en</w>
c o
ä n
D i
w ei
a p
I n
a h
c om
s t</w>
in g
l d</w>
o p
po li
d es</w>
V er
e ,</w>
s .</w>
s h
u ro
R e
t .</w>
e x
fü r</w>
as s</w>
a ch
au f</w>
d as</w>
c e</w>
r ei
es t
ei t</w>
wi r
si ch</w>
h a
er i
a d
ei n</w>
c k
i st
m o
S t
is t</w>
ar e</w>
d ass</w>
al s</w>
A n
ti on</w>
u t
ung en</w>
t er</w>
sch af
a li
u t</w>
li ch</w>
el l
al l
b e</w>
i m
ati on</w>
ou ld</w>
i r
h in
a g
uro p
z i
b er</w>
e m</w>
u m</w>
w or
U n
de m</w>
ni cht</w>
u m
s e
t s</w>
i m</w>
Th e</w>
s o
sch e</w>
r an
s ti
at e</w>
m it</w>
di es
poli ti
d u
y ,</w>
s o</w>
Di e</w>
g es
no t</w>
wi th</w>
t s
a k
i li
E urop
b y</w>
l l</w>
m en</w>
2 0
ol l
q u
b es
t u
a hr
s in
au s
ä r
ü r
t z
d en
w e
ein er</w>
h as</w>
on om
er e</w>
S ch
ha ve</w>
t ra
l ei
w as</w>
f in
co un
t ri
g o
p or
e .</w>
f i
si e</w>
ung s
in ter
it s</w>
wi ll</w>
m or
s en</w>
m ent</w>
es ,</w>
m ent
o h
m an
I n</w>
wi e</w>
C hin
d a
w en
g ro
i hr
t en
t schaf
w ar
E n
n ation
p ar
l a
ec onom
b ei
P ro
e v
st en</w>
th er</w>
e b
er ung</w>
ro m</w>
e ar
e y</w>
ö n
k an
t o
m e
ein en</w>
r ä
ili t
un d
s en
f rom</w>
U S
ti m
g h
ei r</w>
c al</w>
d ur
ar k
au f
th eir</w>
ön n
y .</w>
E in
r en
k önn
h al
ou t</w>
m in
mor e</w>
E r
ü ber</w>
h ab
a ch</w>
A u
ti g
A r
p l
s el
lo b
e g
on e</w>
n u
i schen</w>
lich en</w>
e l</w>
au ch</w>
g an
es .</w>
p ri
d ,</w>
p e
A m
p er
an k
et z
d o
al l</w>
ch t
r at
g er
h o
m en
i ch</w>
Re gi
c an</w>
au s</w>
an der
ri t
1 9
w ould</w>
lich e</w>
t ed</w>
be i</w>
es e</w>
k om
d .</w>
es s</w>
c re
J ahr
i c</w>
ver n
m p
u b
a in
ar y</w>
U S</w>
v or
b o
h at</w>
o der</w>
s er
g lob
th is</w>
il li
Am eri
al ly</w>
ü ber
p res
ä hr
l u
h e
g r
t ei
o ff
h er
ü n
s y
p re
sin d</w>
m us
der n</w>
d ar
e f
ge b
th ey</w>
eh r</w>
ein em</w>
m e</w>
go vern
t r
u s</w>
B ut</w>
for m
er s</w>
g el
h ei
A us
W el
a at
en d</w>
b ut</w>
si on
l an
i ch
dur ch</w>
b le
ch en</w>
v o
v el
B e
th an</w>
fü hr
a ,</w>
coun tri
G es
al e</w>
si on</w>
fin an
wh ich</w>
i d
w el
ci al</w>
w a
En t
K on
t ur
ä h
li k
w ur
es t</w>
e p
al en</w>
g ra
as t</w>
zu r</w>
R us
wer den</w>
i c
k eit</w>
i er
w ar</w>
t en,</w>
er n
re c
li e
wir d</w>
P o
y ear
f ol
s a
l l
f t</w>
ihr e</w>
d ing</w>
wir tschaf
i sche</w>
i el
t ro
ä ch
ab le</w>
le a
m ark
w ür
L än
ge h
d s</w>
e t</w>
d en.</w>
m an</w>
ü ck
m it
ne h
e k
20 0
s ec
no ch</w>
f ri
g u
i h
m on
Un ter
wi ck
f l
ti v
r on
as s
m is
t or
o b
un ter
ei g
v or</w>
st ell
ch an
e ff
g er</w>
ö r
dies e</w>
h eit</w>
be en</w>
in v
t y</w>
er n</w>
gro w
es s
t re
ne u
al so</w>
ol o
Europ e
l in
k ra
P ar
c es</w>
c ri
d en,</w>
ig h
b i
it y</w>
c y</w>
Chin a</w>
k on
d es
nu r</w>
b r
ti er
si ch
t a
t ing</w>
F in
o ch</w>
hab en</w>
te ,</w>
c an
mo st</w>
h at
W ir
M en
econom ic</w>
v er</w>
an z
sy st
o ther</w>
in n
ü s
M a
20 1
n ach</w>
ex p
re gi
s oll
b en
inter nation
o w
e ch
be t
de d</w>
ou s</w>
n ah
at ed</w>
m ehr</w>
a ’s</w>
st ru
i e</w>
wen n</w>
f ac
e u
b t</w>
t en.</w>
k l
A b
am p
ub li
ur e</w>
c ould</w>
lo w
G e
ah l
di g
är k
un der
er ,</w>
l and</w>
ti ve</w>
tion s</w>
b u
and el
s am
a st
p ubli
du c
ar i
m er</w>
ä t</w>
t el
s om
V or
sti tu
man y</w>
Po li
I s
di s
g h</w>
ab out</w>
wi r</w>
ap it
ö g
n ,</w>
ed ,</w>
v en</w>
h is</w>
f ra
h e</w>
n e</w>
en s</w>
T ru
i e
ab er</w>
US A</w>
ne w</w>
st at
com p
a ff
tion en</w>
Wir tschaf
s on
D as</w>
K ri
D er</w>
ma k
el y</w>
on ly</w>
countri es</w>
M it
f o
n o</w>
w e</w>
ati ve</w>
st ri
A l
f e
ein es</w>
ch e</w>
I ra
St aat
sh ould</w>
po s
an c
s ol
si d
ü tz
l än
in c
com e</w>
an s</w>
E U</w>
s k
politi cal</w>
In ter
vi el
m u
glob al</w>
su ch</w>
en s
' s</w>
f u
b ank
su p
ä l
ge w
por t
ges ch
g lei
a m</w>
ach st
l on
pe op
wick l
t ung</w>
an t</w>
wh o</w>
w oh
n .</w>
ge gen</w>
b ar
Z u
w o</w>
le ,</w>
sh i
rä sid
st e</w>
th o
sch er</w>
m ilit
dies er</w>
un i
wi schen</w>
a ge</w>
F or
c ur
wer e</w>
l ä
m üs
de c
h ar
S y
Poli ti
de vel
an ce</w>
ti es</w>
ation s</w>
f a
un k
er en</w>
ent s</w>
zu m</w>
un ter</w>
l ar
k ei
Europe an</w>
z wischen</w>
de mo
en den</w>
der s</w>
olo gi
no w</w>
wei se</w>
ti c
l and
Rus si
v en
or d
st eh
il e</w>
ung ,</w>
ti ge</w>
ra l</w>
ev en</w>
Ent wickl
z ei
J ah
Fin anz
te .</w>
ist ,</w>
G r
ge m
D e
en de</w>
wor l
n en</w>
or i
cre as
S p
c ra
s eine</w>
de ut
au se</w>
er t</w>
c k</w>
i f</w>
Ar bei
sch ei
US -
ab ilit
h ö
er g
wei ter
Au f
c ent
c c
s m
coun tr
li m
f ir
il l
le tz
z e</w>
devel op
wirtschaf t
re l
si g
ing s</w>
M e
o ver
wh at</w>
ti gen</w>
ru p
E s</w>
or e
us t</w>
it ed</w>
re s</w>
c le
gh t</w>
in creas
Th is</w>
Wel t</w>
th ere</w>
Un d</w>
min ist
P räsid
ö ß
ti c</w>
ac c
te t</w>
h el
t in
ment s</w>
C h
e g</w>
y ’s</w>
D och</w>
s etz
govern ment</w>
re ch
sch ein
com m
t ak
g est
gro ß
w är
w er</w>
m s</w>
wh en</w>
s ein
n is
v ing</w>
b en</w>
d am
J ap
rei ch
po si
wer den.</w>
mus t</w>
g re
finan cial</w>
A ber</w>
O b
st and
th ese</w>
e -
ou r</w>
ög lich
d ung</w>
a si
wi e
be c
er k
M illi
tion ,</w>
Men schen</w>
inv est
ec t</w>
le g
v ol
k e
U m
ap p
som e</w>
u p</w>
wir k
en ce</w>
woh l</w>
sch i
ff ent
U ni
em p
ing ,</w>
schaf t</w>
an k</w>
syst em
t ran
o d</w>
e gi
f er
f all
im p
d r
qu i
wi ch
ro u
o f
Regi erung</w>
i r</w>
in to</w>
an i
In di
ma y</w>
Regi er
di es</w>
wor ld</w>
lie ß
th er
I t</w>
ell en</w>
di c
k ri
peop le</w>
at es</w>
s s
st ütz
for der
s ur
F ran
at s
B er
el le</w>
Jah r</w>
u p
en d
h en</w>
Ü ber
I ran
kra ti
ähr end</w>
ber ei
l au
ac k
l am
0 0</w>
p a
gr öß
us am
Län der</w>
G er
si ve</w>
em o
ha d</w>
pro ble
o ur
z en</w>
an y</w>
Un ited</w>
ed .</w>
a d</w>
in i
f re
l at
ihr er</w>
d o</w>
im mer</w>
lik e</w>
ac k</w>
S o
ation ,</w>
W achst
m m
wor k
In v
te ch
di ff
F ü
ig er</w>
st rat
de m
be g
wi th
en c
s e,</w>
at ing</w>
L i
Is ra
R i
ge gen
Jahr en</w>
res p
N o
po p
v es</w>
kom men</w>
en g
s ein</w>
ti g</w>
b le</w>
h än
el ec
Pro ble
milit ary</w>
a .</w>
A s</w>
th re
o ver</w>
in e</w>
de ,</w>
tion al</w>
kan n</w>
h ä
ing .</w>
A fri
mu ch</w>
g res
an t
grow th</w>
politi schen</w>
tei l
k eine</w>
ä tz
. ”</w>
h ol
t n
s ch</w>
zi eh
po wer
19 9
m en,</w>
pro duc
am eri
An d</w>
l ess</w>
Ameri c
cri si
N ach
neh men</w>
bec ause</w>
in s</w>
k en</w>
d an
m ei
por t</w>
h igh
no w
pri v
ter n
B es
inc lu
p h
ö l
B ank
ver y</w>
an ti
wh ere</w>
ö ffent
du stri
e urop
st aat
könn te</w>
b is</w>
tim e</w>
ag ain
L and
at en</w>
k ur
wer den,</w>
D oll
K o
lich er</w>
t or</w>
ander en</w>
tion .</w>
D emo
r ü
sel b
ge ,</w>
year s</w>
k o
internation al</w>
du k
E x
M o
G el
we en</w>
) .</w>
g en,</w>
s at
i d</w>
p f
si er
b il
te u
L eb
c ar
H au
g ab
ander e</w>
politi sche</w>
an ,</w>
nation al</w>
ou t
bet ween</w>
ein ig
E U
Wirtschaf ts
wel t
K re
usam men
th em
su b
ei gen
at or
Rus s
al le</w>
ou gh</w>
c or
müs sen</w>
re g
tho se</w>
S ich
st ar
j e
d a</w>
Europ a</w>
he u
W en
poli cy</w>
n ach
A f
wur de</w>
y ing</w>
hei ts
z ur
sp iel
v al
G ro
) ,</w>
re ad
de .</w>
publi c</w>
m em
y p
st ärk
s or
ri s
ation .</w>
ma ch
s einer</w>
li c
n or
n ologi
y s</w>
on en</w>
de p
r au
en n
es ti
g t</w>
id ent</w>
Sch ul
F ra
demo cra
Wel t
bes ch
re ma
in stitu
con tin
I m</w>
ä ischen</w>
ameri kan
st än
lo s
ge f
al ,</w>
mark et
stru c
P res
nah men</w>
i ge</w>
er hal
d om
sch w
s ei
m p</w>
R es
wa y</w>
an n
h er</w>
on d</w>
K om
L and</w>
g a
I f</w>
O r
äch lich</w>
bes te
Sich er
illi on</w>
glei ch
is m
regi on
g ar</w>
st ,</w>
Tru mp</w>
ihr en</w>
b ein
H er
j ed
so ci
l as
z ent
könn en</w>
c apit
son dern</w>
viel e</w>
z eh
el l</w>
zi er
lan g
t ar
sam e</w>
b or
wür de</w>
uro z
ut z
Wen n</w>
again st</w>
l y,</w>
v ed</w>
me di
con c
W es
wel l</w>
A si
S ie</w>
t wo</w>
h um
an g
Ges ch
im port
B ei
ation en</w>
Län dern</w>
b el
lo y
it e</w>
j ust</w>
cle ar</w>
ne ed</w>
wh ile</w>
T ei
ter n</w>
Z ei
A k
neu e</w>
w ährend</w>
er gi
st e
m ul
t t
i l</w>
a u</w>
f e</w>
pro t
do w
ist .</w>
b in
Europ e</w>
t ru
st and</w>
de l</w>
bes on
res ul
on g</w>
C on
i ci
for m</w>
Ob am
wi s
o us
ti al</w>
Gro ß
ali t
on s</w>
M in
k a</w>
dur ch
w ahr
pro vi
r ate</w>
cur r
u rit
etz t</w>
ri ch
syst em</w>
F or</w>
lo w</w>
r or
m en.</w>
G en
T ats
eff ec
ent en</w>
ec i
ah l</w>
B o
m öglich
re d</w>
mus s</w>
beste h
u e</w>
G re
B u
st s</w>
gen er
t es</w>
sch n
W or
Ira n</w>
fir st</w>
dies em</w>
lea ders</w>
Di ese</w>
le c
on ,</w>
chan ge</w>
vo m</w>
m al</w>
ch all
z un
ho w</w>
W ei
ma j
selb st</w>
ra tion</w>
N or
fu l</w>
Jahr e</w>
li er
b al
sch ließ
ung .</w>
ti schen</w>
j en
b ri
af ter</w>
letz ten</w>
än der
i z
w a</w>
e w</w>
sh al
de fi
pro gra
con tro
resp on
po wer</w>
M on
f en</w>
Fü hr
le .</w>
et t
th rou
m at
as e</w>
sp i
ö s
igh t</w>
b lei
v e
vi el</w>
fol g
äh l
pop ul
op er
d ra
bo th</w>
V ol
f is
in es
ar ly</w>
ent ly</w>
ali z
un s</w>
u r</w>
S o</w>
h and
der ,</w>
den en</w>
wei l</w>
i de
read y</w>
dam it</w>
z ahl
C om
S teu
em ent</w>
ac e</w>
Ein e</w>
politi k</w>
do es</w>
ag re
th em</w>
E in</w>
ow n</w>
inter est</w>
wen iger</w>
f te</w>
gi bt</w>
Inv esti
t ain
o k
ex amp
he al
Mit g
A ra
m er
e li
et wa</w>
Ma ß
tra de</w>
H andel
l ed</w>
Arbei ts
er d
Politi k</w>
ni ch
hö h
mark et</w>
ar bei
ung en,</w>
in s
it ät</w>
h ist
y o
P ri
or t</w>
gem ein
de b
fri sti
mak e</w>
n at
g ri
zur ück
su cc
econom y</w>
g ung</w>
0 %</w>
re ,</w>
an g</w>
2 0</w>
o b</w>
we i</w>
eig n</w>
ci es</w>
er h
Pro z
Doll ar</w>
worl d
ver si
ap pro
Pres ident</w>
oh ne</w>
wick el
po in
F ol
da zu</w>
sin d,</w>
f und
k er</w>
n ung</w>
tar ge
Ber ei
S u
B ed
ol d</w>
be come</w>
abilit y</w>
i g</w>
e qu
wir d.</w>
en en</w>
us e</w>
si erung</w>
st ra
su ch
de ci
Di es</w>
Z eit</w>
ig en</w>
Ent schei
c ul
welt wei
vol u
at t
r in
countr y</w>
s eit</w>
gan g</w>
ad v
co ur
l ast</w>
Präsid ent</w>
t al
at er</w>
diff er
ed u
z wei
ih r</w>
sp ar
emp loy
de ed,</w>
f rei
lei st
lik ely</w>
al ready</w>
soll te</w>
j ec
Tru mp
Ameri can</w>
B us
in di
is su
ent wickel
öl k
n ed</w>
an ge
gr und</w>
w ell
st o
br au
dies es</w>
w o
ver sch
M ark
sich er
re as
pro c
erd ings</w>
w an
f ut
shi p</w>
p p
e w
i den
en ti
De ut
am ent
ü h
ar g
sat z</w>
hä t
heu te</w>
s ’</w>
h andel
ch ines
P al
al er</w>
ex c
c all
Hau shal
Z usammen
der e</w>
de u
ri gh
th ing</w>
li ber
z wei</w>
tran s
Pro duk
po ten
l es</w>
c y
W ahl
f ul
En ergi
un c
ment ,</w>
m i
h ig
kl är
K apit
nis se</w>
Wirtschaf t</w>
st er
h in</w>
L ei
jed och</w>
uroz one</w>
to da
strat egi
id d
b ank</w>
d re
eh l
rec ent</w>
re co
sion s</w>
war d</w>
neu en</w>
er weise</w>
wie der</w>
ro h
us s</w>
l ass
w ach
or gan
u d
Unter nehmen</w>
ter m</w>
Staat en</w>
re form
bein g</w>
k un
Entwickl ung</w>
hab en,</w>
Kre di
t -
pos si
kei ten</w>
no v
h au
crisi s</w>
sup port</w>
throu gh</w>
eb en
Wachst um</w>
B il
hän gi
Sy ri
w al
o o
z us
fl ation</w>
zeh n
ä u
ni fi
tim m
Demo krati
urit y</w>
ter s</w>
con f
n am
e ver
lon g</w>
p ra
N ation
inter est
f ahr
ben ef
re li
ges ich
so ur
n is</w>
dies en</w>
Russ land</w>
Gr und
sein ,</w>
mp f
U kra
W h
Regier ungen</w>
sti ll</w>
tur e</w>
Ri si
a ge
w om
ti sche</w>
de t</w>
schaf t
f el
der ar
, ”</w>
lich keit</w>
wir d,</w>
Vol k
su m
p rä
inclu ding</w>
zun eh
mit tel
0 00</w>
ver b
it ä
cre di
s c
soll ten</w>
mei sten</w>
te t,</w>
con si
so cial</w>
sig nifi
19 8
en erg
s h</w>
s eh
z eu
t sch
u li
a il
f ar</w>
er .</w>
Jap an</w>
h i
berei ts</w>
Milli ar
st ron
in f
b as
W ähr
t om
si cht
ment .</w>
des sen</w>
rup p
Staat s
K in
bes ser
al -
n ei
Men sch
fa il
reg ul
er st
Unter stütz
r us
vi c
Uni on</w>
k onom
ar d</w>
Deut sch
b us
Milli onen</w>
ent ,</w>
ä f
t un
Re ch
lei ch
examp le,</w>
ge t</w>
schi ed
tr au
sin d.</w>
so gar</w>
te l</w>
y e
s ehr</w>
wor k</w>
econom i
Entwickl ungs
res our
wär e</w>
wur den</w>
wich tig
äh ig
gesich ts</w>
p at
f as
stru k
ran k
gegen über</w>
T o
tak e</w>
ri sk
de f
re pres
tion s
un der</w>
br ing
signifi can
ß er
ff en</w>
en k
kom men
In deed,</w>
de bt</w>
all ,</w>
m ight</w>
h app
rei ch</w>
ti n</w>
b ilit
Sy st
for e</w>
p i
ant wor
Th at</w>
y -
si de</w>
a z
o m</w>
li eg
oh l
sin ce</w>
edu c
erhal b</w>
b re
st ren
st ate</w>
G D
Chin a’s</w>
tic ul
d est
B ür
V i
c lim
P rei
wirtschaft lichen</w>
te m
g en.</w>
z eig
t s,</w>
com ing</w>
t ly</w>
p ur
war en</w>
so zi
se t</w>
g -
se .</w>
K li
govern ments</w>
bu il
ein f
hist or
h oh
o ,</w>
us ed</w>
l ag
with out</w>
be d
ne t</w>
h under
z w
so wie</w>
Ges und
c ap
R ück
idd le</w>
for eign</w>
es p
ch il
Chin ese</w>
le x
N i
zei ch
priv ate</w>
wirtschaf t</w>
o w</w>
nu n</w>
b en,</w>
d ru
s ere</w>
th ough</w>
al le
ma de</w>
hat ,</w>
D ur
St ates</w>
z eit</w>
curr ent</w>
re al</w>
import ant</w>
b est
St at
pro mis
li g
Z i
N A
tei l</w>
in ,</w>
en st
Ver einig
th ,</w>
r än
s einen</w>
Z ent
k e</w>
G ef
ali sm
maj or</w>
ä ische</w>
re .</w>
dan n</w>
k ün
ti z
b ar</w>
en ding</w>
ör der
comm un
ac coun
ab hängi
mem ber
de fin
fis cal</w>
i an</w>
In stitu
se em
hab en.</w>
Min ist
it sel
for c
re f
ac ro
t s.</w>
B I
ex tre
fü r
P u
r y</w>
d on
re du
Volk s
si schen</w>
ar ,</w>
ali ty</w>
glob alen</w>
ar o
par ticul
i zi
to o</w>
t ä
gan gen
Jahr zehn
ab li
europ äischen</w>
Arbei t
unter stütz
ver s
kom m
be wer
ar m
ur o</w>
r ing
F rau
hal ten</w>
sein .</w>
p la
der en</w>
M us
olo g
an ni
k ill
can not</w>
L e
di tional</w>
Wachst um
ir e</w>
and ,</w>
st ain
ta x</w>
Kli ma
t wen
P er
rat es</w>
m ö
b eit</w>
ren z
of ten</w>
Milliar den</w>
ye ar</w>
am e</w>
ac t</w>
et ary</w>
Me di
grow ing</w>
Af ter</w>
beson dere</w>
ed ri
ih nen</w>
T ech
ün g
B ev
di d
o un
tor s</w>
all erdings</w>
wei ter</w>
o k</w>
Obam a</w>
s es</w>
v oll
di rec
w es
wi ll
W e</w>
H in
in dustri
Tats ächlich</w>
M ar
EU -
n ec
Ma cht</w>
x t</w>
qu es
R ei
dar auf</w>
Kri se</w>
a in</w>
r al
Entschei d
is m</w>
u f
wahr schein
kan n
Fran k
wirtschaft liche</w>
b ra
se qu
gab en</w>
Russi a</w>
n er</w>
ent schei
Unterstütz ung</w>
lar ge</w>
G lob
m ig
D a
vel y</w>
Gen er
politi c
S ou
at ,</w>
m ati
ges am
on .</w>
B ank</w>
ie der
ab ly</w>
sh ar
W er
low ing</w>
T ur
S ec
T o</w>
M an
hau p
invest ment</w>
Isra el</w>
be tra
eb en</w>
hig h</w>
ge führ
ci p
W ir</w>
st re
Maß nahmen</w>
tech nologi
pe ti
Th ere</w>
on -
Isra el
Is lam
posi tion</w>
om e</w>
ing ly</w>
Th ey</w>
k ä
zi el
k ey</w>
m as
pos ed</w>
c as
F ri
könn ten</w>
iel e</w>
or s</w>
nu clear</w>
ism us</w>
worl d.</w>
bus in
a de</w>
T a
G em
year s,</w>
Steu er
m ar
t rä
al tern
könn en.</w>
groß en</w>
re k
T er
Bev ölk
da bei</w>
St rat
en or
al .</w>
th en</w>
in dem</w>
comp ani
ge .</w>
Afri c
p unk
h n
over ,</w>
ch ,</w>
le v
p er</w>
di d</w>
Pu tin</w>
n um
auf grund</w>
R ol
B re
den ce</w>
Inter es
hel p</w>
ak ist
energ y</w>
B eh
au th
b ro
Investi tionen</w>
sch ul
clim ate</w>
In dustri
w in
B ar
mo der
im pro
En de</w>
off en
e ’s</w>
Wor ld</w>
st .</w>
for men</w>
ri ght</w>
rän k
W ar
am ong</w>
j etzt</w>
b asi
amerikan ischen</w>
Au ch</w>
b ru
comm on</w>
th .</w>
Re publi
ni edri
ell ei
a v
hat .</w>
b lo
Land es</w>
ad d
pl om
N at
k ein</w>
M iddle</w>
dow n</w>
zuneh men
sch aff
poli cies</w>
Q u
pro f
it .</w>
bet ter</w>
e th
ab ili
lea d</w>
Ar g
w oll
bes t</w>
t z</w>
g yp
war .</w>
finan zi
ent .</w>
M öglich
K ore
m ög
go od</w>
äh n
world ’s</w>
W ie</w>
ation s
g es</w>
ed s</w>
Bes ch
cur ren
re duc
lo se</w>
gres s</w>
ation s.</w>
Vereinig ten</w>
tra c
R I
ah er</w>
Zu kun
dre i</w>
cent ral</w>
5 %</w>
bank s</w>
l ing</w>
si mp
fall s</w>
aus ge
mul ti
aro und</w>
in form
ß en
lä s
ta in</w>
g ing</w>
lea der
al y
T O
groß e</w>
U N
Chin as</w>
vi du
b en.</w>
S el
re qui
un ser
capit al</w>
l ab
w achst
ges t</w>
defi c
at er
in te
in ten
hum an</w>
Handel s
aus forder
M ore
Bu t,</w>
c ol
besteh t</w>
it h</w>
ellei cht</w>
as ,</w>
More over,</w>
Kon f
Jap an
st er</w>
do ch</w>
stren g
ess es</w>
sp e
ärk te</w>
wa ys</w>
ä d
eigen en</w>
t lich</w>
f rü
Iran ian</w>
ver ,</w>
Proz ent</w>
s en,</w>
op p
su stain
Strat egi
hei ten</w>
sec ond</w>
mis sion</w>
hin der
wie der
tro l
market s</w>
ma ß
m illion</w>
th in
all y,</w>
Ge gen
5 0</w>
p rei
est abli
d oll
f ur
internation alen</w>
heal th</w>
pl an
’ t</w>
n ing</w>
d ri
da von</w>
L ös
ris k</w>
ra ther</w>
lon g-
geb en</w>
s eri
Americ a’s</w>
tur n</w>
th e
contin u
sh or
develop ment</w>
R o
z war</w>
rit anni
vi ron
t ren
k now
d el
su ff
p ut</w>
par t</w>
s ci
con su
ati v
thre e</w>
n äch
t :</w>
Jahr hunder
tu r</w>
gest ell
mon th
mis sion
sec urity</w>
be fore</w>
F rei
g lau
glei ch</w>
b ritanni
Zent ral
Gem ein
ad minist
chall eng
all er</w>
Groß britanni
val u
or ity</w>
P ut
m il
N ew</w>
Mitg li
la w
ne e
sp rech
Ges ell
bas ed</w>
E ast
W i
li tt
me as
wh e
ser v
Her ausforder
exp eri
em erg
lang fristi
aus zu
sch on</w>
demo krati
ati ven</w>
st ark
Z in
st in
fin d</w>
o cc
la ge</w>
b illion</w>
ho us
er forder
progra m
ein ige</w>
com peti
Al s</w>
bei spiel
land s</w>
significan t</w>
on d
ä ß
Tei l</w>
k as</w>
dur ing</w>
s er</w>
pl ac
c er
F l
increas e</w>
tion s,</w>
ern ,</w>
j ect</w>
a k</w>
ne w
i sch
ma in
Proble m</w>
P akist
in come</w>
tu ral</w>
reli gi
M or
an zu
nation alen</w>
lin e</w>
countri es,</w>
Er geb
z el
n er
eri ch
com mit
inn erhalb</w>
g ,</w>
Di es
pre v
ür lich</w>
vi ol
rei chen</w>
an del</w>
Aus wirk
fo c
an other</w>
fut ure</w>
Chin a,</w>
bei den</w>
ev er</w>
e p</w>
B ri
as k
ins besondere</w>
B ra
B et
en der</w>
g ni
m e,</w>
il y</w>
f ast</w>
gr und
Or gan
I de
z ö
st -
Sel b
S ü
tion s.</w>
fe w</w>
es sion</w>
A ll
et s</w>
j üng
shi p
itsel f</w>
lich ,</w>
sup por
op port
whe ther</w>
som e
s f
l er</w>
as h
ar e
sol u
en viron
en z</w>
Frau en</w>
o se</w>
wei t</w>
F ir
da für</w>
Ko sten</w>
p eri
dom es
s weise</w>
le ast</w>
S ei
litt le</w>
le ar
Sicher heits
govern ment
esp eci
schaf ten</w>
G i
nah me</w>
f am
w ä
W hen</w>
Be zieh
Gesch ich
we ver,</w>
kon n
f -
high er</w>
com es</w>
E C
cht ung</w>
h af
Rol le</w>
schließ lich</w>
targe ted</w>
0 er</w>
Ar t</w>
ne xt</w>
en tier
s en.</w>
especi ally</w>
develop ing</w>
A t</w>
war ,</w>
ta x
ic ul
Par tei
D ar
c al
si cht</w>
proble m</w>
exp ec
an ischen</w>
er reich
or der</w>
schein t</w>
Af gh
u res</w>
ll en</w>
resour ces</w>
K amp
er klär
diff icul
indi vidu
b ack</w>
Bank en</w>
19 7
kill ing</w>
ali sti
Ger man
Bus h</w>
W ith</w>
Z wei
kei t,</w>
Deutsch land</w>
countr y’s</w>
sour c
Unter neh
g ed</w>
ec k
ak tu
au m</w>
on ds</w>
Tech nologi
me hr
T ran
eff or
h äl
K ur
se ver
tsch rit
le vel
al d</w>
z ed</w>
kri se</w>
Zukun ft</w>
conf lic
ci tiz
ter ror
f al
es sion
go ti
Ge or
s m</w>
brau ch
ord in
t ungen</w>
z o
j u
ator s</w>
ma cht</w>
i en</w>
län der</w>
v em
sti eg</w>
cent ur
er höh
Konf lik
f äl
bu d
vi ous</w>
st ei
o il</w>
pres s
D is
internation ale</w>
power ful</w>
h ör
glob ale</w>
ro w
I t
st off
al most</w>
m ,</w>
to ward</w>
call ed</w>
Americ a</w>
i scher</w>
ver fü
add res
O p
h op
bilit y</w>
Pal est
par ti
G rupp
domes tic</w>
b au
et was</w>
Politi ker</w>
sp ec
l en</w>
Wei se</w>
b ur
ä stin
viel en</w>
Bre x
sch le
o d
Haushal ts
GD P</w>
Leb en</w>
o ck
ne g
interest s</w>
z ep
wür den</w>
ra is
cour se,</w>
S au
of f</w>
in nov
ro le</w>
U m</w>
be deu
ra di
ci vi
ür z
Auswirk ungen</w>
ges etz
gen d</w>
F all</w>
sicht lich</w>
E ben
stell en,</w>
me ans</w>
pri ces</w>
a at</w>
j o
es sen
öffent lichen</w>
s s</w>
gen om
es ’</w>
M ilit
it y.</w>
Proble me</w>
minist er</w>
gen d
ett bewer
Ob wohl</w>
N E
si sche</w>
k rä
prot ec
k ore
es s,</w>
with in</w>
Kredi t
is ,</w>
z er
it y,</w>
m al
Fin an
mon etary</w>
di st
E urozone</w>
f est
R ah
rel ati
o s</w>
g ut</w>
hand l
challeng es</w>
ne eds</w>
geh en</w>
Fra ge</w>
Sicher heit</w>
“ ,</w>
stell ung</w>
zu g</w>
f f</w>
rema ins</w>
f all</w>
dec ad
For tschrit
ne goti
chall en
l s</w>
c la
arg um
f en,</w>
economi es</w>
gen de</w>
wi er
b ack
p as
p rin
c e,</w>
fra ge</w>
ein zu
a gen
W is
Gesund heits
in gen</w>
ein mal</w>
W as</w>
Europ äischen</w>
ach e</w>
reco gni
kur z
Mitgli ed
di g</w>
Afgh an
un den</w>
K rank
te te</w>
ap s</w>
tig ung</w>
G eb
be w
se k
b is
P h
ist s</w>
et y</w>
f ass
Demokrati e</w>
ver besser
g o</w>
ali sierung</w>
m erk
Iran 's</w>
t on</w>
wh y</w>
weiter e</w>
vo c
to p</w>
respon si
ge t
le ad
hel p
Ter ror
könn en,</w>
un sere</w>
erk enn
rema in</w>
ern .</w>
en ing</w>
G ri
t ats
lan g</w>
Re volu
3 0</w>
er sten</w>
B em
O ne</w>
A ut
land ,</w>
Kri eg</w>
Regi on</w>
0 0
alle m</w>
weiter hin</w>
es en</w>
W ährend</w>
er s,</w>
dep en
Ukra ine</w>
Th ese</w>
j ob
um fas
sen schaft
b ili
be lie
sp eci
Gel d
P ol
shi ft</w>
gr ün
D en
vi elleicht</w>
W eg</w>
I m
a gi
200 8</w>
en ces</w>
M ach
m un
s on</w>
län di
m ut
gi ven</w>
c oll
p ast</w>
wen ig</w>
Währ ungs
Gr ün
di plom
Russi an</w>
te i</w>
Afghan ist
tier t</w>
de ter
O R
G o
ri se</w>
B eg
ho wever,</w>
steh en</w>
S i
tion ier
gan z</w>
so li
wi der
m om
D on
o ther
H il
organ iz
ever y
tig er</w>
mak ing</w>
employ ment</w>
c amp
är e</w>
nee ded</w>
acc ep
stron g</w>
s ing
dem and</w>
b li
chines ischen</w>
Ver b
we ak
form er</w>
el se
beispiel sweise</w>
ar gu
mem ber</w>
j ek
er folg
ra p
Mit tel
Be deut
gen den</w>
It ali
b t,</w>
an y
stell en</w>
ell er</w>
alism us</w>
K an
ti fi
th at,</w>
altern ative</w>
su g
Ein fl
pro du
n on-
F ren
st abilit
t l
en e</w>
bes timm
Europe ’s</w>
Ö konom
num ber</w>
k o</w>
d at
gef ähr
T ro
la gen</w>
Kapit al
en :</w>
oh n
las sen</w>
g s</w>
al ten</w>
le d
e very</w>
Gel d</w>
tra di
sch es</w>
sa m</w>
e vi
Wh ile</w>
so wohl</w>
pri ce</w>
ne ver</w>
k ul
c y.</w>
it ,</w>
d ür
pro duk
B y</w>
contin ue</w>
T O</w>
o s
M it</w>
a th
ag es</w>
M ex
ou ra
in tel
her r
ex por
em is
res ear
lieg t</w>
e ach</w>
ar d
k ,</w>
vi ew
li es</w>
der al</w>
g ain
Präsid enten</w>
A tom
seem s</w>
differ ent</w>
au s,</w>
Inv est
stat es</w>
dec a
particul arly</w>
W ahr
a ir
Sou th</w>
ti cal</w>
establi sh
Ö l
or en</w>
C ent
lan ge</w>
führ en</w>
W ohl
wom en</w>
dom in
er war
re m</w>
it z
c y,</w>
long- term</w>
con di
Pro gra
Sch rit
Leb ens
pop uli
s einem</w>
T ür
ähig keit</w>
n olog
th ers</w>
Fü r</w>
tn er
l li
Au ßen
ä ri
tim e,</w>
in ed</w>
dr ück
b y
t ät</w>
increas ingly</w>
fund ament
Ameri ka</w>
ten s</w>
Europ as</w>
c aus
at ely</w>
anti -
chil dr
el y,</w>
Wes tern</w>
ti es.</w>
a i
comp le
te t.</w>
ke hr
wahrschein lich</w>
ref lec
provi de</w>
Präsid ent
as ser
punk t</w>
ab zu
n s</w>
a ver
t yp
tim es</w>
r o</w>
po ver
all en</w>
an .</w>
gre ater</w>
ti vi
mon ey</w>
Gr und</w>
Ameri kas</w>
yo u</w>
redu ce</w>
kan er</w>
s af
Ge wal
BI P</w>
f ran
E r</w>
m .</w>
Palest ini
s ag
per son
a -
kom p
te mp
re qu
kä mpf
G leich
in e
Ameri can
fü h
F ed</w>
wach sen
b illi
vo te</w>
W hat</w>
wür de.</w>
d est</w>
democra tic</w>
E ig
ä m
St ra
M an</w>
ih rem</w>
le gi
en ?</w>
milit äri
gen u
re form</w>
si mil
re volu
NE W</w>
si st
I M
our n
. “</w>
F re
B el
Arbeit sp
D ru
spi el</w>
ser vi
kan n.</w>
alit ät</w>
ri er
anc ed</w>
beg inn
deut lich</w>
d ou
ob wohl</w>
amerikan ische</w>
f t
e as
Nor th</w>
S in
af ri
pf lich
ast ro
inf lu
steh t</w>
bei m</w>
t al</w>
off er</w>
es s.</w>
for ce</w>
Mitg lie
sch ie
tei dig
fre e</w>
d aher</w>
auf zu
Bem üh
ti l</w>
pres iden
thre at
k auf
Fren ch</w>
m y</w>
S ek
H I
l ack</w>
z usammen
entschei den
N eu
con tri
y nam
st an
or ding</w>
p ass
ech en
e k</w>
be deut
appro ach</w>
ad ditional</w>
C O
th us</w>
m äß
them sel
possi ble</w>
re t
tech nolog
betra ch
pre c
ini ti
Zi el</w>
Geschich te</w>
So zi
ent ed</w>
compani es</w>
geh t</w>
se e</w>
nec ess
ous ly</w>
E uro</w>
Kri eg
f unk
countri es.</w>
ß en</w>
sec tor</w>
k in
strat eg
le dig
A d
lich es</w>
in flation</w>
Me hr
sp re
ge o
u fi
lon ger</w>
E ven</w>
a vo
ver ring
% .</w>
schn it
sp ä
Uni versi
r e</w>
län dern</w>
M is
L age</w>
wur de,</w>
res er
ti es,</w>
F ehl
sch lä
sp er
inv es
ch ar
Re formen</w>
ung en.</w>
ent e</w>
busin ess</w>
is h
re cht
lat er
n ess</w>
t y,</w>
m ir</w>
system s</w>
ex ist
W ähl
Institu tionen</w>
gro up
“ .</w>
c l
Ger many</w>
a ig
effor ts</w>
Großbritanni en</w>
pl ace</w>
is ch</w>
institu tions</w>
erh eb
s si
s ing</w>
Syst em</w>
sp ending</w>
her vor
gra tion</w>
ear ly</w>
US A
or y</w>
at astro
W ettbewer
po or</w>
hal ten
einf ach</w>
Ver ein
Sch l
low er</w>
grund le
an gesichts</w>
co st</w>
to ge
wh er
we al
acc ess</w>
Bri ti
star k</w>
setz ung</w>
führ ung</w>
fur ther</w>
wachst um</w>
fac e</w>
Er fol
ti ef
hum an
b are</w>
Lei st
H ö
w est
J u
j ähr
y et</w>
Führ ung</w>
sh are</w>
effec tive</w>
an der</w>
I W
ter ,</w>
stell en.</w>
politi ci
näch sten</w>
tig keit</w>
inter ven
poli cy
k s</w>
i ev
Res er
com e.</w>
Mensch en
uni on</w>
consi der
ni e</w>
Par tei</w>
Berei ch</w>
m bo
Re gel
h om
staat en</w>
ig nor
geb en,</w>
Indi en</w>
vi ew</w>
k enn
S ep
tra g</w>
, 000</w>
k ing</w>
nach hal
sti mm
Minist er</w>
Fri ed
Bevölk erung</w>
weltwei t</w>
tats ächlich</w>
bi e
be li
ger n</w>
lo sig
camp aig
t t</w>
K or
li mit
hät te</w>
th ir
den n</w>
Sep tem
U r
de fe
cre ate</w>
E uro
us ,</w>
tig t</w>
la g</w>
ver ur
gab e</w>
In form
l ung</w>
ation s,</w>
fra struc
Hau p
D ev
eben so</w>
hin aus</w>
1 2</w>
ho ch
fü n
O n</w>
co oper
fran zö
con om
Frank reich</w>
succ ess
righ ts</w>
de mon
ges eh
ch o
w ant</w>
poten tial</w>
bed ing
An gesichts</w>
pat h</w>
ar ch
St aat</w>
E conom
nei ther</w>
le k
hat te</w>
fi c</w>
c ase</w>
Th em
Gre ec
ufi g</w>
g .</w>
con sequ
W ieder
t es
emerg ing</w>
co sts</w>
G ren
rup tion</w>
ges ell
st eu
defi z
k aum</w>
H am
ali sier
te ten</w>
Y et</w>
Ira k</w>
s ach
Don ald</w>
fra struk
europ äische</w>
difficul t</w>
imp le
U N</w>
e gen
nich t,</w>
an nu
N ord
stat t</w>
Ver änder
st ud
kün f
Ira q
ßer dem</w>
pre vious</w>
gre at</w>
econom ic
sh ow
US ,</w>
ledig lich</w>
re ck
M al
er st</w>
F e
pra c
an ische</w>
0 ,</w>
dis c
an s
I ch</w>
Ger man</w>
B rit
tier en</w>
nation ale</w>
öffent liche</w>
Fl ü
at ten
M u
le ft</w>
ad ,</w>
Bezieh ungen</w>
f ehl
. 000</w>
Un gleich
publi c
en se</w>
Schul den
Ges etz
lass en.</w>
S ol
geh ör
Briti sh</w>
F ak
contro ll
möglich erweise</w>
fac t,</w>
Be i</w>
rei f
ätz e</w>
poin t</w>
e urozone</w>
S it
politi scher</w>
Syst em
Organ is
ver hinder
mas sive</w>
Inter national</w>
o c
un de</w>
f ang</w>
eh em
contro l</w>
di vi
M ein
us ing</w>
ier t</w>
elec tion</w>
Res sourc
aliz ation</w>
us s
k einen</w>
ach iev
Gri echen
well en
region al</w>
low ed</w>
Ara b</w>
resul t</w>
ver l
sup p
proble ms</w>
Volks wirtschaf
lev el</w>
eff ici
T ra
ou ght</w>
Par lam
or ,</w>
d au
aus ländi
Sch wellen
y si
trol le</w>
sch wer
itä ten</w>
en ed</w>
po se</w>
dig keit</w>
app ear
simp ly</w>
mo bili
gew inn
zi erung</w>
ac y</w>
sp ek
ar ds</w>
ar -
auf ,</w>
member s</w>
a 's</w>
conc ern
Au f</w>
eig n
u ally</w>
lab or</w>
e y
off ici
acro ss</w>
O f</w>
stän d
kan n,</w>
größ ten</w>
in frastruc
geb ra
lich .</w>
ment al</w>
we ap
Ver handl
E ast</w>
no twen
rat en</w>
g keit</w>
For sch
lo s</w>
c e.</w>
c u
benef its</w>
ther e
c ut
ali sm</w>
ev ents</w>
decad es,</w>
dar in,</w>
att ack
be kann
ti v</w>
le ben</w>
19 6
ac tion</w>
eg el
ask ed</w>
Bed roh
sm all</w>
20 20</w>
dep end
on ce</w>
kon zent
kom men,</w>
ander er</w>
Europ e,</w>
bar en</w>
ges etzt</w>
f ten</w>
enst leist
ar ab
h u
W est</w>
zunehmen d</w>
w andel
ag ed</w>
f örder
tu ally</w>
ver such
f ron
en ough</w>
k now</w>
In flation</w>
hei t,</w>
i ce</w>
au l
H e</w>
pro jec
Mark t
umfas sen
sy mbo
gel eg
eff ek
der zeit</w>
d i</w>
ch te</w>
In frastruk
lo cal</w>
es tim
er möglich
1 8
ih n</w>
ens ure</w>
tre at
n om
li g</w>
cor por
s -
res t</w>
Arg ent
seri ous</w>
Z ahl
Bür ger</w>
proc ess</w>
har d</w>
belie ve</w>
in fl
al ways</w>
St u
Flü cht
j us
ar an
Re ak
on i
con stitu
w inn
bes ser</w>
it al</w>
Ara bi
l y.</w>
pur su
gen ann
Dur ch
zi ge</w>
ex change</w>
D G
wier ig
bru ch</w>
Wachstum s
Progra m
O st
NA TO</w>
di gen</w>
ver gangen
nich ts</w>
il l</w>
ih m</w>
Lös ung</w>
at ely,</w>
Ver mö
ar beit</w>
Wi der
Ver trau
pa y
W est
Rah men</w>
tor en</w>
pro mo
lä tz
G u
o ft</w>
chines ische</w>
p en
g g
Bei spiel</w>
So vi
C lin
Mex i
ge wi
führ en.</w>
d ro
D eb
derar tige</w>
des p
ö konom
we der</w>
ber u
si tu
pres ent</w>
schaf ts
di sp
ab le.</w>
N ah
Ch anc
ques tion</w>
an z</w>
ad op
funk tionier
ge wor
leg al</w>
l ö
er te</w>
curren cy</w>
rei b
k re
W ert</w>
agre ement</w>
year ,</w>
fu ge
Nat ürlich</w>
man age
gen au</w>
Y OR
v ari
b ig
än g
hal f</w>
di rek
de ep
S ome</w>
me chan
ch er</w>
ver antwor
se i</w>
Sü d
St abilit
2 %</w>
ent lich</w>
P re
ein ander</w>
herr sch
de ten</w>
p ol
Russi a’s</w>
Re z
Interes sen</w>
war um</w>
C o
l ess
F am
en “</w>
tiv es</w>
beson ders</w>
C A
sam en</w>
be we
tei le</w>
Bar ack</w>
um s</w>
p ro</w>
val ue</w>
bo o
L in
1 ,
zei tig</w>
worl d,</w>
sel f-
be ein
1 .
popul ation</w>
exp an
ah r</w>
ver stärk
N ach</w>
all -
Europ äische</w>
Einfl uss</w>
tradi tion
di se
er ed</w>
sol che</w>
reas on</w>
pro fi
h im
Schul den</w>
ehem ali
wich tige</w>
now .</w>
car b
zeh n</w>
bank en</w>
ni ti
S en
Regier ungs
hö her
Wes ten</w>
Trump ’s</w>
H e
desp ite</w>
b rei
I tal
eu te</w>
Re gu
y ond</w>
ru k
repres ents</w>
au ß
S e
fo und</w>
p ut
res ol
rec ently</w>
ver mei
t y.</w>
W ar</w>
controll ed</w>
childr en</w>
dra mati
A ll</w>
lead ing</w>
ris ing</w>
D a</w>
g il
democra cy</w>
Selb st
Kin der</w>
yo ung</w>
all gem
z ahl</w>
m es</w>
de li
Ver antwor
increas ed</w>
z ing</w>
multi later
is h</w>
c ally</w>
An satz</w>
ut z</w>
tri c
re ach
sch ätz
ke i</w>
eh ol
requ ire</w>
weltwei ten</w>
Sch i
Arbeitsp lätz
pro b
er ing</w>
C oun
lo ok
Septem ber</w>
Ar m
rec ei
er ste</w>
di en
and s</w>
am oun
simil ar</w>
r un
Z iele</w>
imp act</w>
ih res</w>
hal ten.</w>
unter schied
geb en.</w>
re ly</w>
Tür kei</w>
so ver
se em</w>
Kon trolle</w>
O n
M erk
P e
ar s</w>
ti k
ra li
ist en</w>
else where</w>
ästin en
kom men.</w>
Kamp f</w>
An g
hin sichtlich</w>
eh er</w>
H o
East ,</w>
inv ol
ti sch</w>
qu o
es cal
Mus li
se l</w>
en z
en th
opport un
year s.</w>
grow th.</w>
li c</w>
mo ve</w>
Fol gen</w>
Fam ili
Cent ral</w>
bi g</w>
e t,</w>
den k
in ing</w>
ab o
K ö
1 .</w>
s ed</w>
au s.</w>
en e
be fin
Risi ken</w>
v il
a ge,</w>
d -
I niti
tiv ity</w>
d ungs
pa y</w>
losig keit</w>
c are</w>
r ück
stärk er</w>
YOR K</w>
sel ec
coll ap
p us
G eg
An t
hal ten,</w>
develop ed</w>
% ,</w>
them .</w>
pre dic
ma chen</w>
lass en,</w>
Sovi et</w>
cht en,</w>
J un
E Z
pe ace</w>
B est
ver schied
m illi
Ver fass
wh ose</w>
man u
d ort</w>
T re
reform s</w>
enc oura
ent ei
st eig
Zu gang</w>
E gyp
re fuge
er le
dic ate</w>
vergangen en</w>
lex i
unser er</w>
ri ch</w>
finan ce</w>
dan ger
er ten</w>
S ti
legi tim
tren ds</w>
b an</w>
t liche</w>
stand ing</w>
J e
Bemüh ungen</w>
S h
A S
policy mak
finan c
fall en</w>
educ ation</w>
S er
accoun t</w>
In nov
wirk lich</w>
n ö
for ces</w>
ef u
Bus h
ra sch
führ en,</w>
an aly
Ver gangen
fut u
all es</w>
G -
Kre m
risk s</w>
deter min
Ri chtung</w>
B und
An d,</w>
lo ss
in du
en di
sch l
resear ch</w>
econom y.</w>
con tra
blei bt</w>
wur de.</w>
ali st</w>
h im</w>
G az
al es</w>
Bedeut ung</w>
um ,</w>
diplom ati
gegen wär
da y,</w>
b ut
Pri v
Erfol g</w>
tro tz</w>
tak en</w>
on e.</w>
lo ok</w>
bud get</w>
Ver teidig
b au</w>
d ly</w>
com par
ag ing</w>
J an
tech ni
bal ance</w>
tiv en</w>
la w</w>
de al</w>
a w
men sch
lei hen</w>
Su ch</w>
Politi k
nat u
ari an</w>
Gesell schaft</w>
1 ,</w>
com ment
defe at</w>
Tats ach
S ub
An gri
N G
äch st</w>
st ab
o -
rei cht</w>
ou gh
des ig
al tung</w>
si tion</w>
al o
Wahl en</w>
M any</w>
zus etz
fac t</w>
Haup t
über sch
m ärkte</w>
s :</w>
ter ms</w>
op en</w>
fu el
ar .</w>
sich ten</w>
N e
Fran ce</w>
mach en.</w>
ar y,</w>
ur ch</w>
a di
a h</w>
po st-
Ges am
m el
si s</w>
sen k
s eines</w>
re por
zent r
be ha
Gewal t</w>
ma in</w>
en ari
wis senschaft
w on
occ ur</w>
er s.</w>
Zin ss
19 3
themsel ves</w>
s ön
Mitglie der</w>
ap pe
t est
Milit är
är en</w>
p al
citiz ens</w>
ak e</w>
w ahl
In te
administ ration</w>
erst ör
T i
ma g
foc us</w>
d y</w>
V or</w>
zus ätz
T ren
W aff
zu ,</w>
poten zi
ci r
t able</w>
happ ens</w>
tra gen</w>
cap ac
B RI
sp ra
li fe</w>
per h
el op
stell t</w>
or d</w>
k ürz
geh t,</w>
ati ves</w>
addres s</w>
seh en</w>
Volkswirtschaf ten</w>
Dru ck</w>
Trump s</w>
sec tor
be zeich
V iele</w>
S or
adv anced</w>
v is
pri c
depend ent</w>
Z iel
P lan
u ri
rus sischen</w>
pres sion</w>
con fi
be haup
thin k</w>
regi me,</w>
li n</w>
all ein</w>
priv aten</w>
al li
H off
es i
al s,</w>
lea der,</w>
go ing</w>
Ira q</w>
sci enti
qui di
hä ufig</w>
ch s</w>
Fe deral</w>
Dev elop
tn is</w>
y ed</w>
sen se</w>
sch ütz
n utz
hal b</w>
defin e</w>
O sten</w>
sti mul
vi er</w>
un til</w>
ir gend
Ver bin
S par
Strategi e</w>
N u
E ff
t ation</w>
R om
off izi
fo ssi
en -
un abhängi
o thers</w>
gel y</w>
P lat
IW F</w>
An teil</w>
ev ent
G eh
Brex it</w>
zu min
sever al</w>
fün f</w>
cla im
lar gest</w>
toge ther</w>
e jen
cul tural</w>
work ers</w>
li gh
ger ing
credi t</w>
gew ähr
k am
regi me</w>
is tischen</w>
g t,</w>
Aus gaben</w>
v e,</w>
ga b</w>
Partei en</w>
b an
P op
O N
sion ,</w>
t ungs
st rä
oh n</w>
at temp
o ds</w>
Pri me</w>
Ö ffent
p u
Geor ge</w>
on e,</w>
Län der
jüng sten</w>
W ech
Indi a</w>
über zeu
p an
gew al
ak zep
Dies er</w>
A I
s anc
En g
ier en</w>
Ein kommen</w>
te d,</w>
ra tion
pe ac
mög lich</w>
An gel
li gen</w>
uni ties</w>
hö ch
geführ t</w>
Re cht</w>
thre at</w>
Sit u
Ein kommen
d ungen</w>
Rech ts
z ation</w>
c um
me an
f er</w>
Ar beit</w>
ten d</w>
Finanz krise</w>
mig ran
d ynam
h y
at e,</w>
Sau di</w>
di stri
ärk ten</w>
l ös
St ruk
sur pri
Sy n
N ieder
par ty</w>
de t,</w>
be hör
agre em
mak es</w>
ru n</w>
low s</w>
geh en.</w>
eri cht</w>
em i
h ne</w>
be hin
Revolu tion</w>
tu n</w>
requi res</w>
em er
Arm ut</w>
Ressourc en</w>
hoh en</w>
fre ed
Ak ti
zumin dest</w>
z ü
month s.</w>
fi ve</w>
Afri ka</w>
könn te.</w>
beg renz
gu te</w>
größ te</w>
be zahl
W ahl</w>
tru e</w>
b t.</w>
t lichen</w>
parti cip
er wei
rei che</w>
tiv ität</w>
st ability</w>
Z ahl</w>
W e
Put in
öffent lich
nei gh
c ro
u al</w>
O ff
Besch äf
po or
indu st
Afric a</w>
toda y’s</w>
o .</w>
Zusammen arbeit</w>
Vermö gen
Di enstleist
ne t
consu mp
bil ater
S ow
Deb at
pro gress</w>
wür de,</w>
1 5</w>
mom ent
col lec
de ck
tier en.</w>
st eigen
ein zige</w>
dow n
d s,</w>
201 5</w>
Wir k
tak ing</w>
perh aps</w>
es si
Pro jek
tier en,</w>
A cc
ch ten</w>
Ergeb nis</w>
De fi
Fra gen</w>
proble m
Ameri kaner</w>
lo ck
gen ce</w>
Nah en</w>
n en,</w>
inform ation</w>
er ziel
Zei t
ver änder
sustain able</w>
ke ep</w>
challen ge</w>
Russ lands</w>
si li
dec lin
hol d</w>
issu es</w>
di ge</w>
Bür ger
Ant wor
ver su
f y</w>
annu al</w>
K ol
D rit
A s
1 %</w>
eth ni
0 .</w>
ut zen</w>
fer end
P l
Mo d
par ties</w>
kan ischen</w>
Welt wirtschaft</w>
R u
Bed ing
b it
Y or
strategi c</w>
k n
bec ame</w>
ta ge</w>
setz en</w>
auf ge
P rin
M ärkte</w>
For m</w>
ö hn
be gan
m ier
prev ent</w>
heal th
de te</w>
con ven
Wech sel
Jah res</w>
can did
neh men,</w>
leader ship</w>
in equ
lo k
br ing</w>
bis her</w>
Fol lowing</w>
lar gely</w>
je der</w>
ni g
geh en,</w>
Afghanist an</w>
3 %</w>
u tion</w>
tz dem</w>
sy ch
fi el
cer tain
A n</w>
te d.</w>
steh en,</w>
sing le</w>
le ben
ko st
IM F</w>
Grund lage</w>
fü ll
doll ar</w>
at e.</w>
Li ber
meas ures</w>
l ück
an ces</w>
G lau
Bund es
Gren zen</w>
e asi
Nation al</w>
qu ar
ig en,</w>
ful l</w>
under min
cre ated</w>
19 4
ful ly</w>
m äch
g än
enc e,</w>
crisi s,</w>
vi si
sion .</w>
ing -
w ander
p ul
Be zug</w>
201 0</w>
strateg y</w>
fri ed
enc e.</w>
a de
gra ph
Sozi al
Menschen rech
as .</w>
sch o
carb on</w>
toda y</w>
ger ade</w>
ator y</w>
servi ces</w>
resul t,</w>
pro voc
grow th,</w>
einig en</w>
be l</w>
coun ter
Au s</w>
American s</w>
um p
z in
wei gh</w>
m ung</w>
star t</w>
sh e</w>
tra g
ourn ali
co st
Palestini an</w>
verb rei
ni em
iden ti
c los
tun ately,</w>
ge wis
ge l</w>
ad urch</w>
Ch ri
ru les</w>
re turn</w>
medi a</w>
No vem
issu e</w>
comment ators</w>
sug gest
poli ci
chan ges</w>
se en</w>
ori ties</w>
technolog y</w>
pra k
me et
0 -
wel che</w>
high -
gi ve</w>
f our</w>
con struc
ch e
v in
thir d</w>
au gu
P rä
e qui
b l
Au ßerdem</w>
A t
tu re
invest ors</w>
hop e</w>
c ru
sp r
kri eg
W o
Defi z
ru le</w>
fra g
mit tl
atastro p
Li by
fail ed</w>
S eit</w>
G ol
Entscheid ungen</w>
v ul
h ear
M än
spi egel
läs st</w>
e hr
be yond</w>
aktu ellen</w>
Europ ä
m ist
in sur
Glob al</w>
symbo lic</w>
ri cht</w>
Ukra in
wan del</w>
argum entier
8 ,</w>
n äm
da y</w>
buil d</w>
Vergangen heit</w>
schn ell</w>
re agi
ag o,</w>
un employment</w>
low -
Pro ject</w>
Er fahr
1 00</w>
rel ation
fol ge</w>
f es
civi l</w>
Ver fü
ne arly</w>
forc ed</w>
escal ation</w>
z usam
politic s</w>
Be we
pres ident</w>
maj ority</w>
Afri can</w>
work ing</w>
N et
C har
Pakist an</w>
f en.</w>
fo od</w>
au t</w>
Arg um
ha ving</w>
efu l</w>
e uro</w>
dat a</w>
increas ing</w>
ation al</w>
pro pos
anc e,</w>
K op
Tatsach e,</w>
Par ty</w>
Bevölk er
200 9</w>
lo c
c ause</w>
Mehr heit</w>
gestell t</w>
sch einen</w>
sa y</w>
H andel</w>
2 5</w>
th ern</w>
g as</w>
ash ing
st ag
presiden tial</w>
E mission
Am ts
ie ve</w>
qu anti
einf ach
le gen</w>
ho ch</w>
tre ten</w>
h il
gesch aff
V iel
wo bei</w>
W ashing
Dar über</w>
spre chen</w>
N ationen</w>
Jan u
beha vi
be ,</w>
ser vic
ach ieve</w>
No ten
4 0</w>
re ven
k amp
In fl
respon se</w>
la di
i cial</w>
es sen</w>
Europ e.</w>
regi on</w>
n ’t</w>
fir ms</w>
krä fte</w>
f ,</w>
An rei
k us
j ap
c lose</w>
B au
re cht</w>
bew us
i le,</w>
ei ther</w>
bring en.</w>
anc e.</w>
v ement</w>
man i
besch ränk
Mitglied s
neigh bor
dr in
d lichen</w>
popul ar</w>
a way</w>
teil ung</w>
com bin
natu ral</w>
lo st</w>
am bi
j unk
er er</w>
wei t
c ut</w>
Z w
st u
soci ety</w>
so ,</w>
neh men.</w>
l ate</w>
v e.</w>
job s</w>
eben falls</w>
beru h
sion en</w>
mo dern</w>
kurz fristi
h ere</w>
eff izi
M ig
them e</w>
re ally</w>
en )</w>
ci pl
Kan did
B i
komm t</w>
Wirtschafts wachstum</w>
S om
sp or
pl an</w>
en s,</w>
Al tern
hoh e</w>
en sive</w>
de vote</w>
Unterneh men
tu al</w>
th er,</w>
o x
Wechsel kur
H ar
D am
S tim
( und</w>
wa ff
is ra
defic it</w>
dar f</w>
an ge</w>
St and
Mark t</w>
K ul
5 ,</w>
i k
hol ung</w>
ch ed</w>
Stabilit ät</w>
K ing
wi de</w>
stat t
ri cht
H äl
rou gh
he ad
h et
ü t
ti vely</w>
ob jec
commun ity</w>
mo del
mark t</w>
an s,</w>
re lev
ent sprech
press ure</w>
ide a</w>
genom men</w>
Z un
im por
bank ing</w>
st or
relati v</w>
il ,</w>
müs sen,</w>
benef it</w>
pres id
bli ck</w>
ag gres
In ste
Sch w
GD P
prob ably</w>
br ingen</w>
mach en,</w>
isra eli
dar unter</w>
Öffent lichkeit</w>
weiter en</w>
w ron
finan zier
sp ru
gew ähl
ein ,</w>
aliz ed</w>
Ä n
ter .</w>
Führ ungs
opp el
P ra
Nach frage</w>
prei se</w>
St ärk
näm lich</w>
centur y</w>
ati n</w>
fi c
ex per
Entschei dung</w>
äh ri
sam keit</w>
199 0
ü ck</w>
to tal</w>
s ;</w>
re tur
politici ans</w>
ge m</w>
contri bu
Inter net</w>
E li
9 ,</w>
conc lu
aver age</w>
Sch ließ
year 's</w>
sm us</w>
inc en
un controlled</w>
e den</w>
Bedroh ung</w>
z y
tri lli
müs sen.</w>
Rez ession</w>
necess ary</w>
all- out</w>
s ett
off icial</w>
Par tner
Le hr
ter rit
staat lichen</w>
ne u</w>
g erich
tig en,</w>
sch lim
im medi
hin ter</w>
aus reich
ein zel
do ing</w>
ci l</w>
sozi alen</w>
kri eg</w>
dru ck</w>
conflic t</w>
BI P
Go vern
l ing
expec ted</w>
Griechen land</w>
1 0</w>
to ok</w>
de t.</w>
bre ak
posi tive</w>
par li
p oll
ali tion</w>
vor ,</w>
spä ter</w>
re gel
Ver brauch
tiv en
Wettbewer b
si ert</w>
level s</w>
fi ed</w>
avo id</w>
A c
k al
bi et
L o
reas on
m a</w>
Häl fte</w>
en zen</w>
z ähl
w ing</w>
at trac
ac tually</w>
pla y</w>
entwickel ten</w>
sat z
ver wen
cra tic</w>
Herausforder ungen</w>
beg an</w>
USA ,</w>
tra gen,</w>
some thing</w>
jen e</w>
Ab kommen</w>
or der
histor y</w>
ex tern
ein schließlich</w>
Regel n</w>
Mor e</w>
high ly</w>
econom y,</w>
Vertrau en</w>
Sei te</w>
Gesch äf
pro gres
pre ci
K ra
neh mer</w>
imple ment
deca des</w>
conf ron
b ly</w>
augu r</w>
Sch utz</w>
pro sper
crisi s.</w>
Tur ke
si eh
kore a</w>
effec ts</w>
g ei
da für
ur ing</w>
trans form
stru gg
s )</w>
Gi ven</w>
selec tion,</w>
ni mm
n al</w>
f ern
Veränder ungen</w>
Mit tel</w>
sub st
struc tural</w>
s ou
provoc ations.</w>
le -
em ber</w>
di ejen
year .</w>
hel d</w>
bei de</w>
H ung
tschaf t</w>
li ving</w>
Sec urity</w>
wur den,</w>
tra ditional</w>
opportun ity</w>
bet rä
w ater</w>
prot ect</w>
offici als</w>
a im
Fortschrit te</w>
A gen
e f</w>
at or</w>
Islam ic</w>
t an
se ek
er t.</w>
pro z
gu esses</w>
power .</w>
j ähri
impro ve</w>
Dur ch</w>
f an
bil dung</w>
exp lo
am m
Syn dicate</w>
Reak tion</w>
N utz
Gemein schaft</w>
gemein samen</w>
g reif
zu künf
sa id</w>
h ome</w>
fe ar</w>
ver se</w>
neu er</w>
k ehr</w>
par tn
l auf
höh ere</w>
ab le,</w>
la un
Zei t,</w>
Wähl er</w>
Schrit t</w>
ver ständ
ladi mir</w>
g rupp
f ast
b ol
appro ach
Nach bar
rel ative</w>
c rat
F und
wur den.</w>
staat liche</w>
si tz
al low</w>
ni cht
en cy</w>
dar über</w>
er kann
b ad</w>
ver ein
. )</w>
j em
d one</w>
zwei fel
bri tischen</w>
P unk
ul tim
hu ge</w>
per c
gemein same</w>
co ver
Zu dem</w>
4 %</w>
2 -
wei sen</w>
we gen</w>
b ul
aff ung</w>
on e-
institu tion
U K</w>
D O
s wer
n ar
lie gen</w>
Bank en
te m</w>
mat eri
k or
k ol
Kon junk
ä llen</w>
st ep
Un abhängi
t ent</w>
steh en.</w>
e :</w>
Klima wandel</w>
Hil fe</w>
s ”</w>
ow ing</w>
ge ment</w>
w at
vor zu
in ge</w>
Ä gyp
gro up</w>
policymak ers</w>
gew öhn
ver sor
fundament al</w>
blei ben</w>
St äd
– ,</w>
sch wer</w>
a id</w>
vul ner
s th
N ig
L u
po st
R ec
ven tion</w>
is e</w>
sa v
l ,</w>
en d,</w>
W asser
H ei
Ä r
z e
re in
infrastruc ture</w>
J ohn</w>
eigen e</w>
ü ch
führ t</w>
environ mental</w>
dar an</w>
Per son
Mach t
F örder
no thing</w>
n en.</w>
an -
Beh ör
C E
Gef ahr</w>
Bra sili
EZ B</w>
k u
dise as
Jap an,</w>
cri min
K ar
Al though</w>
vi r
sk ill
L atin</w>
Glob alisierung</w>
F u
Develop ment</w>
An fang</w>
e uro
K en
influ ence</w>
extre me</w>
est s</w>
Coun cil</w>
1 6
v öl
ti ce</w>
sub si
sc ale</w>
pover ty</w>
eff ort</w>
Verhandl ungen</w>
Verein ten</w>
Regi me</w>
ve au</w>
tic s</w>
Syri en</w>
tre ff
ne te</w>
Situ ation</w>
Jahrzehn ten</w>
Acc ording</w>
tur ing</w>
sur pl
ol er
ob ach
mo di
i ra
buil ding</w>
sec urit
s us
ün sti
h ang</w>
f ig
Sp iel
op tim
geseh en</w>
fahr en</w>
por te</w>
o z
hist ori
P A
soci et
V ene
mo del</w>
beli ev
m ing</w>
aran te
Minist er
schw äch
sch ri
Pre mier
is lam
der ungen</w>
Prin zi
P or
ru l
on ’s</w>
in zwischen</w>
Proz ess</w>
letz tlich</w>
L ON
B illi
handel t</w>
D aten</w>
konzent rier
a den</w>
Ge winn
kin d</w>
condi tions</w>
ag ri
Län der,</w>
produc tion</w>
leg is
ben ö
wär en</w>
o p</w>
M as
H y
schlä ge</w>
s low
li ve</w>
av ail
D em
( and</w>
To day,</w>
S ank
Risi ko</w>
Kore a</w>
Jahrhunder t</w>
w äl
res ist
Geor gi
rou ght</w>
maß nahmen</w>
Zin sen</w>
tran spar
li f
P f
sa gen</w>
a y
manu fac
au tom
2 .
g no
def ense</w>
neg ative</w>
gu arante
ab ,</w>
nach dem</w>
fol lowing</w>
di sa
S im
Mensch en,</w>
D ef
mo d
fa ir
S ad
min im
me an</w>
al s.</w>
H eute</w>
f lexi
er t,</w>
c ame</w>
zurück zu
st abili
qui ck
politi sch</w>
Beding ungen</w>
suff ici
Kö nig
trä ge</w>
t ac
su per
civi li
Sin ce</w>
üs se</w>
f .</w>
industri al</w>
größ ere</w>
er tain
ep t</w>
Um welt
Japan ese</w>
Invest oren</w>
sch lag
pro per
Er st
gesam ten</w>
Er klär
EU ’s</w>
system .</w>
sei ts</w>
An stieg</w>
weal th</w>
situ ation</w>
An ti
en ;</w>
con trac
Medi en</w>
sur vi
pri m
ein z
über haup
sch en
relati vely</w>
ju st
je de</w>
individu al</w>
D ec
sch lag</w>
am ent</w>
Ein ige</w>
zeig t,</w>
n ation</w>
Sch affung</w>
Asi an</w>
ein deu
Flücht lin
deci sion</w>
ble .</w>
be vor</w>
Eben so</w>
7 ,</w>
op position</w>
Nig eri
L ond
inten si
gen der</w>
Tei l
C ha
demokrati schen</w>
f ear
wer den
All erdings</w>
unter nehmen</w>
is tische</w>
gen au
evi dence</w>
Or d
us es</w>
tri tt</w>
gil t</w>
en h
dafür ,</w>
Regu lier
t ?</w>
er en.</w>
ch en,</w>
behin d</w>
wür den.</w>
st en,</w>
nis sen</w>
Ham as</w>
rel ations</w>
bring en,</w>
exp la
Schließ lich</w>
ologi cal</w>
Verantwor tung</w>
Bil dung</w>
7 %</w>
N ations</w>
ä um
s an
in es</w>
Hö he</w>
ma ß</w>
er inn
Verb ün
tig en.</w>
re p
Ge füh
ter s,</w>
mit tel</w>
consequ ences</w>
power ,</w>
limit ed</w>
ic s</w>
scho ol
rei g
on g
ch .</w>
ab kommen</w>
No twen
li ef
inclu de</w>
ge -
neh m
hat ten</w>
fra me
f ar
an no
Vor teile</w>
countri es’</w>
Sow j
Kom mun
rus sische</w>
mor ali
Herausforder ung</w>
in dic
deb ate</w>
certain ly</w>
Er n
ver fol
I I
reduc ing</w>
b om
Musli m</w>
Gegen satz</w>
re -
fel d</w>
f t,</w>
Mo st</w>
gel ö
direc t</w>
ati sti
NA TO
B ru
ur en</w>
arab ischen</w>
Sp ani
L at
Berei chen</w>
new s</w>
hi er</w>
Gre at</w>
C he
nat ürlich</w>
ier en.</w>
an ts</w>
LON DO
LONDO N</w>
p räsid
for man
Kom mission</w>
Arbeits losigkeit</w>
shor t-
ho ff
basi c</w>
S ark
ün f
ä ll
emis sions</w>
B al
j ob</w>
c au
ac tivi
under stand</w>
sozi ale</w>
p sych
g ü
b wür
Russi a,</w>
jed es</w>
er -
vic tor
Möglich keit</w>
R oh
Er holung</w>
Clin ton</w>
Ökonom en</w>
subst anti
Struk tur
Re form
fin den</w>
fail ure</w>
Fried ens
1 0
we ek
sh ow</w>
wi d
Jahrhunder ts</w>
wichtig sten</w>
e uroz
der ung</w>
Z u</w>
st eck
sh ort</w>
c all</w>
v al</w>
A ss
en ab
cre ating</w>
An zahl</w>
Grupp e</w>
succ ess</w>
milli ons</w>
ma li
h ier
ges ag
ern sth
Gener al</w>
Chin a.</w>
ver pflich
st a
Energi e
3 ,</w>
ap par
supp ly</w>
p ap
kämpf ung</w>
wirtschaft licher</w>
Mus lim
CA M
capac ity</w>
are as</w>
S pe
vor her
curr ently</w>
Novem ber</w>
Gef ahr
hei ß
Pl an</w>
4 ,</w>
los sen</w>
durch schnit
chan ge.</w>
Eben e</w>
än dern</w>
voll stän
ent s,</w>
at h</w>
Technologi en</w>
Pro zent
M al</w>
M ac
to o,</w>
blo ck
lang sam
hal tung</w>
di versi
Selb st</w>
über rasch
produ ce</w>
group s</w>
Ta i
Interes se</w>
Asi a</w>
wer t</w>
s ent
hab e</w>
er en,</w>
s ex
res tor
lich erweise</w>
con nec
Par is</w>
C am
Arbeitsplätz e</w>
will ing</w>
ste p</w>
pal ästinen
lar ger</w>
enti re</w>
CAM BRI
CAMBRI DG
t rei
pl at
UN -
2 ,
religi ous</w>
know n</w>
je wei
fam ili
f ight</w>
19 5
ut es</w>
r ö
bi o
Stat es,</w>
St re
wahl en</w>
rap id</w>
prin cip
liber al</w>
d rit
ander s</w>
Sark oz
Gi pf
O pf
F ähig
D es
ver tre
gre at
N o</w>
K rä
bo t</w>
as su
an halten
led ge</w>
consi der</w>
EC B</w>
ü st
tiv e,</w>
pur ch
hät ten</w>
fl us
at s</w>
zi ert</w>
throu gh
sa ge</w>
e ”</w>
pa ar</w>
campaig n</w>
be tei
Europe ans</w>
wh ile,</w>
t ari
ex ten
Com mission</w>
- -
for t
dem and
Vene zu
Venezu el
C ar
mig ration</w>
H a
Auf merk
weap ons</w>
system ,</w>
su re,</w>
so -
par ts</w>
dec ade</w>
bedeu tet</w>
Infrastruk tur</w>
In don
Ak tiv
tig es</w>
qu ality</w>
be coming</w>
W .</w>
ren ew
man gel
be tri
auth or
Ex per
5 .</w>
experi ence</w>
asi ati
wen dung</w>
setz en,</w>
h eb
stra li
produc tivity</w>
den ti
dec line</w>
ven tionen</w>
glei chen</w>
genu g</w>
be zieh
ad just
sto p</w>
k lear
g ar
en nen</w>
eli min
cri tical</w>
Prei se</w>
tion en,</w>
t “</w>
m ein
depen dence</w>
ab ge
Geld politik</w>
F lu
Econom ic</w>
Antwor t</w>
vo ters</w>
r und</w>
corpor ate</w>
c ou
Rei he</w>
Entscheid ung
us .</w>
I S
to -
progra m</w>
durch aus</w>
ber eit</w>
fin den,</w>
Frank reich
2 ,</w>
per sön
in n</w>
et .</w>
geh end</w>
Ver such
Inte gration</w>
wei ger
g eri
F ein
strä ger</w>
wi se,</w>
re ach</w>
u te</w>
bal d</w>
b rought</w>
ph ysi
e gen</w>
d adurch</w>
Isra eli
Ang st</w>
ück sich
ko sten</w>
groß er</w>
g as
er seits</w>
in tro
er reicht</w>
con serv
tu re,</w>
h an
f lo
E m
stand ards</w>
sek tor</w>
distri bu
Minister präsid
mor al</w>
manage ment</w>
er ne
w ähr
ic ally</w>
Kon tin
201 6</w>
war en,</w>
si ze</w>
quanti t
k am</w>
dec lar
St ad
No t</w>
ter e</w>
nich t.</w>
Ein satz</w>
stark e</w>
j ung
b ed</w>
l y
hat te,</w>
f unc
Debat te</w>
y 's</w>
bes ten</w>
Beh and
zu dem</w>
wich tigen</w>
west lichen</w>
nor m
k lu
go ods</w>
futu re.</w>
langfristi gen</w>
kra ft</w>
kon trol
gleich zeitig</w>
Asi en</w>
ro w</w>
Priv at
Prei s</w>
ier en,</w>
abo ve</w>
Industri el
gesam t</w>
G ra
wa ffen</w>
re port</w>
S on
Kon su
a dem
Dies es</w>
i a</w>
alit ä
Th e
K ohl
Fri eden</w>
äu ßer
succ e
St rei
A N
Greec e</w>
Fir st,</w>
progra ms</w>
poli cy.</w>
extern al</w>
ari a</w>
x im
st ing</w>
lea der</w>
US .</w>
z erstör
gel ei
T ri
verur sach
ac tions</w>
Wohl stand</w>
Tur key</w>
Europä er</w>
d roh
Kredi te</w>
wer tung</w>
ver folg
ti ally</w>
th ings</w>
rais e</w>
ism ,</w>
heu tigen</w>
ernsth af
ef s</w>
commit ment</w>
Produk tion</w>
Israel i</w>
A m</w>
viol ence</w>
ver s</w>
re alisti
fund s</w>
Z us
Sowj et
Itali en</w>
6 %</w>
fa vor
ch es</w>
bal anc
all .</w>
stark en</w>
nat ür
Wis sen
lei h
kl ar</w>
gemein sam</w>
fo und
f onds</w>
er neu
Sei ten</w>
Reser ve</w>
kl ar
an gem
D aher</w>
out side</w>
ne ten</w>
könn te,</w>
fir m
caus ed</w>
ber ,</w>
ah e</w>
Tro tz</w>
Gesund heit</w>
Aus maß</w>
recogni ze</w>
boo st</w>
b ark
Prei s
C ol
s mus
hei m
he av
per forman
los s</w>
g t.</w>
Förder ung</w>
on d,</w>
as soci
Pri or
h and</w>
Regier ung
I r
exist ing</w>
V on</w>
L ab
E reig
person al</w>
C or
occ up
in al</w>
ff e</w>
Volks wirtschaft</w>
re pe
Ta g</w>
G ü
Akti en
AI D
so- called</w>
s erung</w>
itä ts
en heit</w>
bes serung</w>
Steu ern</w>
tun ,</w>
m and
it arian</w>
fer ence</w>
S um
zeig t</w>
ade qu
Yor k</w>
Kapit al</w>
’ s,</w>
los sen
j ud
atten tion</w>
as k</w>
Ungleich heit</w>
Ein zel
völ lig</w>
sch wi
ent ly,</w>
cooper ation</w>
Ver häl
überhaup t</w>
se par
gan zen</w>
Ver tre
v es.</w>
success ful</w>
in dependent</w>
Zinss ätze</w>
Dis kus
system e</w>
rel ated</w>
k raten</w>
anno unc
vi sion</w>
me et</w>
bri tische</w>
K im</w>
t ;</w>
sour ce</w>
basi s</w>
B asi
mög lichen</w>
Hin blick</w>
0 .
ag er</w>
O ber
Entwicklungs ländern</w>
EU ,</w>
mas si
i erung</w>
ein .</w>
ass ets</w>
Kom p
H ow</w>
tem por
we ch
cle arly</w>
adv an
f igh
bil anz
F o
streng th
le ’s</w>
le t</w>
el s</w>
Pal ästin
wichtig er</w>
ver öffentlich
uni vers
ag no
ver ab
help ed</w>
establish ed</w>
Sank tionen</w>
main tain</w>
inn en
gen e
fo o
Sau di
N ahr
sin k
cer tain</w>
B ericht</w>
8 %</w>
Grupp en</w>
Billi onen</w>
resp ec
finanzi elle</w>
beein flus
Them a</w>
wor den</w>
konn te</w>
Ver besserung</w>
li ves</w>
ein ander
be .</w>
Präsident schafts
ti k</w>
gesell schaft
ac i
frei en</w>
ap az
for tunately,</w>
Ver pflich
201 1</w>
sh ed</w>
sch -
f ru
expor ts</w>
des cri
Er do
ing s,</w>
Sch wierig
zwei te</w>
s ü
qu ali
n it
Finan zierung</w>
F ac
i cal</w>
ö ff
sch rei
month s</w>
Strategi en</w>
un mittel
soci e
m üh
i ,</w>
stat us</w>
s au
W in
de ep</w>
German y,</w>
ö pf
te x
franzö sischen</w>
aff ec
Zentral bank</w>
S ing
fra gen</w>
Au st
su s</w>
setz en.</w>
n or</w>
gro und
War um</w>
R ich
un ge
per f
ges ti
dr än
Ko so
organ is
mor t
K ey
Im mobili
Bei spiel
wo durch</w>
langfristi ge</w>
Wel t,</w>
Ergeb nisse</w>
devel op</w>
0 ,
sch reck
k t
invest ments</w>
sto ck</w>
hei t.</w>
elec tions</w>
ah e
ag ain</w>
1 0%</w>
- S
de d.</w>
al ong</w>
M acro
H um
Fran c
es en,</w>
c las
bedeu tet,</w>
F rü
sover eign
ro o
religi ö
per man
f lu
bein ahe</w>
H ous
ren n
dru ck
dic t
Leist ungs
H and
201 4</w>
kan ische</w>
imp lic
consump tion</w>
as sist
Wer te</w>
Inste ad,</w>
zu gleich</w>
stand ard</w>
pro por
F ron
zu stellen,</w>
well -
aktu elle</w>
p ati
k apit
fi zier
econom ists</w>
ali ze</w>
unc ertain
so on</w>
pre par
un ver
repres ent
qu e</w>
p ast
ferend um</w>
al one</w>
pri me</w>
peri od</w>
Putin ’s</w>
CAMBRIDG E</w>
eff ect</w>
brau chen</w>
Put ins</w>
setz t</w>
m id
ran ge</w>
gra du
höher en</w>
et z</w>
brau cht</w>
Geschäf ts
in ste
es sive</w>
acc ording</w>
Mon etary</w>
Konflik t</w>
un ded</w>
er o
cor rup
an t,</w>
Zusammen hang</w>
Zusammen bruch</w>
pres s</w>
ori es</w>
k .</w>
ti scher</w>
is mus
ge wich
Gel egen
zo gen</w>
li ght</w>
hr e</w>
d ä
Verfü gung</w>
M om
Key n
Haushal te</w>
E l
prec ed
peop le,</w>
par tner
accep t</w>
ment s,</w>
j ahr
cy c
al lowed</w>
Investi tions
y iel
m sten</w>
legis l
bed roh
Me tho
Indi a,</w>
Fir men</w>
pro posed</w>
erh af
d lich</w>
ag u
W andel</w>
mat ter</w>
li erung</w>
gebra cht</w>
ev ol
ent s.</w>
deci sion
alit y,</w>
An aly
well .</w>
versch är
gri ech
Kor ruption</w>
C ri
sa y,</w>
ev it
attack s</w>
D er
201 2</w>
198 0
bes sere</w>
6 0</w>
zi g</w>
sicher heit</w>
m arg
kei t.</w>
Com mun
K l
res tric
ment s.</w>
j e</w>
dra w
continu ed</w>
D at
ism .</w>
hö her</w>
tho us
f ang
tax es</w>
spe zi
rat ed</w>
m als</w>
co p
ab le
Infl ations
Aufmerk samkeit</w>
Au strali
elec tor
c at
solu tion</w>
pl ann
or ig
age .</w>
Möglich keiten</w>
Fol ge</w>
6 ,</w>
pus h
m e.</w>
lo wer
le ch
hous ehol
ent -
besch äf
Vi et
opport unities</w>
lich t</w>
in evit
F ällen</w>
stabilit ät</w>
be merk
per at
on e’s</w>
Rech te</w>
Po ten
promis e</w>
e ge</w>
ar t</w>
Führ er</w>
y ”</w>
pre h
parli ament
lä ub
un er
aus gaben</w>
amoun t</w>
200 0</w>
resour c
meet ing</w>
it ing</w>
freed om</w>
ein ge
da m</w>
Tran s
Hil f
Eff ek
sich er</w>
lo sen</w>
government ’s</w>
Risi ko
cla im</w>
bel ow</w>
nor mal
erkenn en,</w>
Klima wandel
Beschäf tig
ge macht</w>
frü her
f t.</w>
Par tn
Den noch</w>
enor me</w>
Jahrzehn t</w>
Brit ain
un likely</w>
te ure</w>
s ?</w>
m es
f are</w>
auth orities</w>
t est</w>
govern ment,</w>
Sek tor</w>
wi ss
uni versi
oo l</w>
Währ ung</w>
provi ded</w>
p rü
m uni
To des
Beg inn</w>
si eren</w>
la m</w>
at e-
200 7</w>
t ten</w>
ed ly</w>
ad .</w>
K ern
main tain
kommen den</w>
je dem</w>
inte gration</w>
go al</w>
en d.</w>
demon strat
Mon at</w>
L aut</w>
201 3</w>
danger ous</w>
concern s</w>
F und</w>
cht en.</w>
Macro n</w>
Behör den</w>
sh ap
komm un
kl ein
jähr lich</w>
t wo
responsi bility</w>
kl as
ga in</w>
exc lu
defic its</w>
Wis senschaft
Frei heit</w>
v ölk
sol chen</w>
pro -
negoti ations</w>
in si
führ te</w>
demokrati sche</w>
In stru
Brit ain</w>
Argent in
rough ly</w>
er in</w>
ent er</w>
off ic
now ,</w>
as set</w>
Inform ationen</w>
I mp
A pri
Tra de</w>
Sp i
Eig ent
stei ger
sanc tions</w>
ex ac
cul ture</w>
F alle</w>
Ad minist
to ber</w>
her aus
größ eren</w>
experi enc
Gesam t
ü b
militäri sche</w>
Schl üs
Entwicklungs länder</w>
th en,</w>
Verteidig ungs
N utzen</w>
tur ned</w>
für wor
f ein
we ak</w>
genann ten</w>
disc us
b lam
D o
h und
emp ha
con stra
appear s</w>
zieh en</w>
rap id
provi ding</w>
market s.</w>
ier te</w>
extre m
at .</w>
N ,</w>
ür f
reco ver
ra t</w>
ma g</w>
B ro
An pass
unter gra
tu res</w>
m et
Staats an
ör per
tra k
ordin ary</w>
ier ten</w>
comm er
beginn ing</w>
b ub
Wahr schein
responsi ble</w>
prof ession
pp ed</w>
market s,</w>
li ed</w>
ex ec
Pop uli
ä r</w>
gener al</w>
em bra
contri but
collap se</w>
Is lam</w>
sich ,</w>
sa ving</w>
Un fortunately,</w>
ge g
esp ite</w>
Iran ’s</w>
D espite</w>
ri ed</w>
au ster
Rück gang</w>
B erich
lea ve</w>
cour se</w>
M y
kürz lich</w>
je den</w>
bar .</w>
ün d
i ck
do m</w>
d oppel
chan ge,</w>
Lond on</w>
tim e.</w>
govern ance</w>
K at
teil weise</w>
sch ung</w>
lei cht</w>
la gen
institu tional</w>
i k</w>
Me an
Her r
Ges prä
there by</w>
hel fen,</w>
confi dence</w>
Stat us</w>
Dienstleist ungen</w>
ru c
erst er</w>
y n
W AS
S un
Merk el</w>
Haushalts defiz
G ei
ü ro
komp lex
el er
eas y</w>
Um stän
NG TO
Ein wander
indust ry</w>
erhal ten</w>
dam als</w>
Um setzung</w>
valu es</w>
relation ship</w>
op posi
ship .</w>
g lich</w>
bew äl
auf .</w>
h or
ble ,</w>
b ir
Sim il
Min der
Aus land</w>
zi p
sel f</w>
minist eri
dig it
contra st,</w>
Zentral banken</w>
Leb an
Emission en</w>
sk ep
se ek</w>
ei ch
con sum
L ast</w>
wä re,</w>
sen sus</w>
co ordin
an geb
ab .</w>
T ali
Lat ein
sen si
op en
m ärkten</w>
cor e</w>
zeig en,</w>
li er</w>
fac ing</w>
deut schen</w>
c lo
a ir</w>
Nach rich
F ähigkeit</w>
über all</w>
ver kauf
quo te</w>
ell ing</w>
con duc
Sp ann
mo vem
fer enz</w>
bor der</w>
Tei len</w>
Sec ond,</w>
Jahrzehn te</w>
wa y.</w>
stei gen</w>
li gi
l ad
A R
stand s</w>
st ed</w>
en ds</w>
ber ücksich
bei zu
ausländi sche</w>
Opf er</w>
essen tial</w>
ein gesch
Ein führung</w>
g mati
er es</w>
ehemali gen</w>
b s</w>
WAS HI
N a
Fin ally,</w>
re vi
ra ti
inter nal</w>
event ually</w>
dig ung</w>
WASHI NGTO
Tru pp
gi bt,</w>
financ ing</w>
cut s</w>
Parlam ent</w>
Japan ’s</w>
Eig en
ß e</w>
land .</w>
countr y.</w>
cl ass</w>
Ver l
US- Präsident</w>
N ur</w>
Mean while,</w>
war ds</w>
ch mal</w>
ad voc
Re form</w>
un employ
tro ub
tr y</w>
ti li
hat te.</w>
glau ben,</w>
ger ech
an ten</w>
agre ed</w>
ne tz
elec ted</w>
bo dy</w>
ap poin
P at
H ä
D C</w>
war en.</w>
ser ve</w>
ge mach
er a</w>
Ver halten</w>
St ate</w>
( the</w>
peop le.</w>
er füll
Land ,</w>
Gre ek</w>
Di plom
ung “</w>
reven u
könn ten.</w>
dar auf,</w>
b onds</w>
argu e</w>
Unabhängi gkeit</w>
German y’s</w>
Einkommen s
Da bei</w>
b rech
ab or
woh l
tra gen.</w>
mäß ig</w>
wa y
rei fen</w>
län ger</w>
le as
Brex it
wieder hol
si l
power s</w>
f arm
c el
ali en
K oh
B ec
tiv e.</w>
sh e
r ing</w>
char ac
T e
Poten zi
B is</w>
An le
sol l</w>
er wi
administ ra
S ie
M ob
J us
Forsch ung</w>
poli cy,</w>
gewähr leist
f äll
Nation al
zieh en.</w>
sch wierig
revolu tion
m acro
is .</w>
ber t</w>
auß erhalb</w>
So ,</w>
B .</w>
ü bri
wan ts</w>
erne ut</w>
cho ic
b ür
Latein ameri
8 .</w>
technologi cal</w>
reg ar
arbei ten</w>
agen da</w>
Inter nationalen</w>
ver mut
h iel
ger ,</w>
ef ul
derar t</w>
Unter such
200 1</w>
w and
stoff e</w>
r en</w>
quick ly</w>
en er</w>
be völk
R est</w>
Ma y</w>
zu g
trilli on</w>
ch ron
Ver gleich</w>
M c
Be kämpfung</w>
B E
we g</w>
ver än
reco very</w>
lab or
fa ir</w>
countr y,</w>
ass er</w>
Ver lu
tiv er</w>
prä sen
os op
an ’s</w>
in .</w>
Zahl ungs
ti ous</w>
prac tic
n ungen</w>
ment e</w>
lan gen</w>
intel lec
ger en</w>
N am
B ur
ta il
O EC
G renz
Ex tre
sig n
enor men</w>
dür fte</w>
Gr öß
um .</w>
selb st
schle ch
ins gesamt</w>
bre chen</w>
Ord nung</w>
Mon aten</w>
A h
5 -
z es</w>
ur y</w>
ten den</w>
schwi eri
pa id</w>
lich keiten</w>
gan g
alit y.</w>
S k
I denti
shar ed</w>
requi red</w>
om s</w>
k ed</w>
for eign
fin den.</w>
betrach tet</w>
Pe op
J o
in deed,</w>
ent sch
Stu di
g lichen</w>
Dam it</w>
wis sen</w>
be en
Kon gress</w>
Geg entei
wär mung</w>
weltwei te</w>
spru ch</w>
promo te</w>
kä mp
em ents</w>
dri ven</w>
An ge
land s
def aul
P ati
C old</w>
schaff en,</w>
s ätz
erreich en.</w>
d or
Un ter</w>
Auf gabe</w>
tier t.</w>
short- term</w>
lo gi
krä f
all s</w>
Energi e</w>
Ar me
2 .</w>
z ,</w>
sor g
op ini
ess en,</w>
Premier minister</w>
Lös ungen</w>
In tel
wher e
sch ,</w>
examp le</w>
deci sions</w>
E L
tr ying</w>
di schen</w>
Iran ,</w>
zu folge</w>
s po
k ali
Wahr heit</w>
H oll
Agen da</w>
il osop
e b</w>
On ly</w>
No w</w>
5 00</w>
zwei ten</w>
wachsen de</w>
mis s
eb ru
be darf</w>
Welt bank</w>
Wahl kamp
WASHINGTO N,</w>
Finan cial</w>
work s</w>
wel t</w>
ur g
schw ach
par t
fu el</w>
F is
F ebru
t oler
ges ,</w>
b in</w>
Argent ini
sich ts
rau m</w>
F ern
t ö
sich t,</w>
ri si
D an
1 7
ges .</w>
fe el</w>
commit ted</w>
R ent
wer k
tig t,</w>
ge zw
en s.</w>
dest ro
om in
at ed.</w>
Uni on,</w>
fund ing</w>
es :</w>
be tro
N etz
suggest s</w>
i er</w>
cir cum
T im
Ni veau</w>
Ni cht
ter en</w>
t ’s</w>
i mag
a sion</w>
a der</w>
wür den,</w>
hal t</w>
egi tim
crat s</w>
a b</w>
Unternehmen s
P au
Mit te</w>
En ga
Al li
g renz
Washing ton</w>
ur s</w>
consi st
aim ed</w>
tri t
t ür
län g
finanzi ellen</w>
b att
Fran ce,</w>
Er war
vol le</w>
fe deral</w>
ens wer
da zu,</w>
competi tion</w>
ch oo
H A
un ser</w>
ul ar</w>
through out</w>
technologi es</w>
sieh t</w>
geh t.</w>
es ;</w>
e “</w>
bie ten</w>
Nahr ungs
Ein ig
( die</w>
tiven ess</w>
glob alization</w>
be müh
al ing</w>
Zei ten</w>
L ock
ver trau
fol lowed</w>
Angri ff</w>
ut er</w>
le un
cor ruption</w>
I hre</w>
F i
tor i
grundle gende</w>
po th
gesam te</w>
geb il
franzö sische</w>
e ten</w>
ar ly,</w>
Obam a’s</w>
J ournali
ven tion
tier t,</w>
in de
expec t
bud ge
De pression</w>
wirtschaf ts
vol l</w>
u ch
shi f
mehr ere</w>
m ass</w>
lo t</w>
dest ruc
dest ens</w>
conven tional</w>
Wachstum s</w>
program m</w>
ent lichen</w>
ci ties</w>
B ef
tun .</w>
p s</w>
in st
form s</w>
wiss en,</w>
reduc tion</w>
ep ing</w>
Er spar
B la
sh ock
in t</w>
ex am
don ’t</w>
d ent</w>
Ver ring
Initi ative</w>
Entscheidung sträger</w>
woll en,</w>
fam ily</w>
F rom</w>
ur ,</w>
un ,</w>
sto ck
schi ed</w>
purch as
S al
Program m</w>
vi er
me tho
m ich</w>
auß er</w>
ander s
Hin sicht</w>
wieder um</w>
rä um
oll ah</w>
establi sh</w>
continu es</w>
Con gress</w>
se chs</w>
oper ation</w>
l -
erfolg reich</w>
R a
Infrastruk tur
der .</w>
L etz
Fehl er</w>
is o
dra sti
agre e</w>
s mo
r het
mar k</w>
l en
dam age</w>
ar ily</w>
w in</w>
verschied enen</w>
streng then</w>
regul atory</w>
re mo
mer ely</w>
g ungen</w>
revolu tion</w>
ex port</w>
e ?</w>
ans wer</w>
Verfass ung</w>
King dom
Fra ge,</w>
ther .</w>
ship ,</w>
ri chtung</w>
intro duc
eng ine
L ö
H u
Bevölker ungs
200 5</w>
wa y,</w>
um s
sp h
sc enari
s al
l ack
exc ep
Tro tzdem</w>
pre -
gewi cht</w>
führ enden</w>
an de</w>
pro spec
inte g
ic ro
h r</w>
re jec
li quidi
effici ent</w>
du e</w>
dig ital</w>
afri kanischen</w>
Afric a,</w>
h on
Verein bar
wid ely</w>
wachsen den</w>
vor gesch
rec ession
n en
govern ment.</w>
gi r
foc used</w>
com modi
th in</w>
st able</w>
over all</w>
ich ,</w>
reduc ed</w>
oc cur
kon fron
in stru
bar er</w>
acc eler
Fortschrit t</w>
De z
z enari
d liche</w>
bar ,</w>
all y.</w>
J ord
ret ary</w>
do c
deut sche</w>
de d,</w>
cas e,</w>
Republi can</w>
R en
Organ iz
Mod ell</w>
Über ein
v es,</w>
targe t</w>
sus p
so ft</w>
seek ing</w>
ri eren</w>
no t
mo vement</w>
Vermögen swer
Kon sen
st opp
organ i
li ge</w>
ge ber</w>
fi x
ent fern
bor row
beg in</w>
East ern</w>
steh t,</w>
prin cipl
neu es</w>
militäri schen</w>
it s.</w>
educ ation,</w>
ar men</w>
ag o</w>
Bra z
produc ed</w>
ori entier
hin ter
gel d
big gest</w>
v inc
out come</w>
mon e
at ed,</w>
Re ligi
L auf
some times</w>
scienti fic</w>
ran ten</w>
mist ak
l ern
ber ech
b i</w>
U K
Sp itz
Da vi
wen ige</w>
man che</w>
le ver
cri tic
si x</w>
D ra
Bil dungs
20 .</w>
zi eren</w>
woll en</w>
vi li
easi ly</w>
bro ad
EU .</w>
Ser bi
Krieg es</w>
B renn
Auf stieg</w>
sec ure</w>
resul ts</w>
maß en</w>
internation aler</w>
T ag
Mein ung</w>
Erdo ğ
y :</w>
reach ed</w>
da ys</w>
blei ben.</w>
ar ran
Tai w
O hne</w>
C an
Bewe gung</w>
t au
ou l
moment an</w>
j ungen</w>
enst off
comple x</w>
Verring erung</w>
Notwen digkeit</w>
L egitim
. "</w>
us ually</w>
terror ist</w>
stimul us</w>
wor th</w>
w ahl</w>
sin n
migran ts</w>
direk t</w>
Par li
D inge</w>
under standing</w>
struk tu
geh ö
Tre at
Terror ismus</w>
Technologi e</w>
Po sition</w>
Li ke
Ide e</w>
G ed
A l</w>
sti ll
sp end
schl uss</w>
inter pre
fac ilit
every one</w>
derar tigen</w>
compar ed</w>
bie tet</w>
ab and
Sing ap
Bec ause</w>
wa ge</w>
t to
s un
reflec ts</w>
en ergi
att ack</w>
Länder n,</w>
Gesell schaften</w>
th ought</w>
sa ve</w>
p un
min destens</w>
gener ation</w>
com preh
best ä
Syri a</w>
Sch ei
über ,</w>
to ol
s et
ent weder</w>
el ess,</w>
de ath</w>
Zwei ten</w>
Konjunk tur
mus lim
inequ ality</w>
ab ro
Wel t.</w>
O c
Like wise,</w>
Am t</w>
show s</w>
schaf t,</w>
rech te</w>
immedi ate</w>
W il
H al
seem ed</w>
hin ,</w>
Wh y</w>
Drit tel</w>
offen sicht
jüng ste</w>
erreich en,</w>
en ’s</w>
3 .
refuge es</w>
is ol
interven tion</w>
increas es</w>
gest al
Regi onen</w>
suffici ent</w>
sch em</w>
populi sti
multilater al</w>
inste ad</w>
europ ä
timm ung</w>
politic ally</w>
gro und</w>
f ung</w>
avail able</w>
Erklär ung</w>
B R
war n
stron ger</w>
requi re
nation aler</w>
ei ,</w>
ass et
Nord korea</w>
K alten</w>
CO 2-
wich tig</w>
tran sition</w>
en des</w>
L uf
Geb ie
G läub
Er kenn
- based</w>
än de</w>
y our</w>
servi ce</w>
sel ben</w>
regi er
ator en</w>
Ges etz</w>
3 ,
, ,
populi st</w>
mark t
k ein
Simil arly,</w>
I mpf
B ang
tr ust</w>
radi k
möglich ,</w>
l le</w>
gebra ch
o ber
m y
law s</w>
chan ce</w>
I mm
versch ul
them ,</w>
g ran
exp ect</w>
behör den</w>
appro pri
H is</w>
H altung</w>
Bu d
F unk
Demo cratic</w>
20 %</w>
soll te.</w>
seh en,</w>
glob aler</w>
competi tive</w>
st ä
sa d</w>
prim ary</w>
X i</w>
Produk tions
Organis ationen</w>
Mal a
M at
verfü g
rec ession</w>
intel li
il ater
höh ung</w>
er mu
behavi or</w>
S inn
Regulier ungs
PA RI
9 .</w>
sci ence</w>
appe ar</w>
J ohn
vol ati
jung e</w>
er zeu
cre ation</w>
Regierung sch
Li quidi
B ünd
w ün
t op
ri o
p ack
lan gu
fäl le</w>
er reichen</w>
d aten</w>
Finanz märkte</w>
Ch ance</w>
Administ ration</w>
u lier
tri g
wer t
te xt</w>
sich erung</w>
shor t
ges p
beträ cht
Me chan
M äd
Er d
Apri l</w>
pus h</w>
commun ic
H inter
stud y</w>
organiz ations</w>
depen den
ch en.</w>
br auch</w>
ad di
Fak toren</w>
w ähl
verantwor tlich</w>
sf ähigkeit</w>
f il
Zeit punkt</w>
CO 2</w>
zusam men</w>
pursu e</w>
plac ed</w>
führ ende</w>
desig ned</w>
Sti ll
Pau l</w>
P i
Mas sen
v ast</w>
tre ffen</w>
steh enden</w>
spre ad</w>
erforder t</w>
cor rec
Unter schie
ro r</w>
provi des</w>
de -
dau erhaf
au ßer
ange l</w>
an o
Ver wal
unser en</w>
te k
erhal ten.</w>
an im
Indon esi
zahl en</w>
wh om</w>
sti t
sag en,</w>
re formen</w>
kon serv
ill en
f äh
diplomati c</w>
cru cial</w>
P erh
Flüchtlin ge</w>
wes en</w>
vermut lich</w>
en ded</w>
ap preci
Kra ft</w>
Gener ation</w>
vulner able</w>
v acc
reflec t</w>
ord nung</w>
or ie</w>
f ähigkeit</w>
c s</w>
bilater al</w>
au ch,</w>
Aktiv itäten</w>
g ust</w>
direc tly</w>
des halb</w>
atastro ph
a il</w>
Universi tä
Sie g</w>
P ap
Kon kur
nah men,</w>
g am
drin gend</w>
Por tu
un be
toda y.</w>
p ag
ish ed</w>
ch ing</w>
Grund ,</w>
200 4</w>
f ern</w>
dis rup
deli ver
autom ati
a i</w>
“ the</w>
thous ands</w>
speci al</w>
centur y,</w>
G oo
B li
sch au
ri schen</w>
nimm t</w>
histori cal</w>
gain s</w>
as sum
Zwei tens</w>
Program me</w>
A spek
teil t</w>
iden tifi
frame work</w>
estim ated</w>
Plat z</w>
König reich</w>
4 .</w>
versuch en,</w>
two -
t y
sh o
sch ränk
inter es
de ath
M ich
An hän
ob lig
mo st
l us
V ier
Th eir</w>
Staat es</w>
Israeli s</w>
ver lier
st s,</w>
näch ste</w>
inte gra
ei l
cro ss
con tr
Ho ch
Durch schnit
wes entlich</w>
vern ünf
v ast
Verhäl tnis</w>
Pol en</w>
I ts</w>
simp le</w>
produc tive</w>
collec tive</w>
Pro tes
un den
redu zier
leich ter
ge ord
b ab
IM F
Be obach
Aus bildung</w>
199 0er</w>
versor gung</w>
verl or
mechan is
il fe</w>
geführ t,</w>
ent gegen
eb en.</w>
develop ment.</w>
Erst ens</w>
tür k
peri o
in spi
de gre
call s</w>
Punk t</w>
K a
Davi d</w>
Außen politik</w>
victor y</w>
stab il
kei ts
con cent
Wettbewer b</w>
I s</w>
Bo th</w>
z .</w>
thin king</w>
lei sten</w>
lat est</w>
finan ci
c ,</w>
wel fare</w>
h am
ein g</w>
der zei
dar an,</w>
an s.</w>
Krank heiten</w>
Bet ra
step s</w>
pe k
par tly</w>
go od
ec k</w>
com b
b ran
ad ap
Republi can
y ou
ten de</w>
schaff en</w>
pla y
n ungs
dar stell
be comes</w>
T radi
T at</w>
Gener al
5 0%</w>
Ägyp ten</w>
wis sen
ter m
eindeu tig</w>
soll te,</w>
schw ung</w>
Spani en</w>
Hoff nung</w>
Au gust</w>
20 0</w>
t nisse</w>
out put</w>
i de</w>
exec u
atastrop he</w>
PARI S</w>
Entwickl ungen</w>
Dem on
Behand lung</w>
zusetz en.</w>
th is,</w>
letz te</w>
fa vor</w>
cas es</w>
b ail
Th us,</w>
So li
S oll
st y
ent er
buil t</w>
th y</w>
re ve
e ;</w>
bre ak</w>
Men ge</w>
Dez ember</w>
9 %</w>
z on
te :</w>
m ous</w>
Vi elleicht</w>
Verbin dung</w>
M är
wi des
tu re.</w>
teil en</w>
ex port
es en.</w>
dest abili
bes te</w>
au t
Spann ungen</w>
Schul d
M angel</w>
um ul
re ality</w>
on y</w>
haup ts
führ er</w>
ber s</w>
In s
wides pre
s .”</w>
ne t,</w>
Zun ächst</w>
Universi ty</w>
Ital y</w>
Hous e</w>
C our
weiter er</w>
t aus
p et
ol e</w>
le ment</w>
individu als</w>
bei ge
Si cht</w>
Chri sti
200 6</w>
ultim ately</w>
man ,</w>
kurz em</w>
kei ten,</w>
Roh stoff
HI V
D ro
ter i
substanti al</w>
stri k
sp ent</w>
sover eign</w>
quantit ative</w>
press ed</w>
d s.</w>
d as
consu mer</w>
wis h</w>
tier te</w>
is en
insur ance</w>
eig erung</w>
dar in</w>
Th ose</w>
Re ag
J ul
vari ous</w>
ti ker</w>
st al
sp richt</w>
s la
re mark
rapid ly</w>
M ul
L e</w>
Di kt
An leihen</w>
Ö l</w>
region alen</w>
re ds</w>
projec ts</w>
moder nen</w>
mat ters</w>
innov ation</w>
incen tives</w>
dru g</w>
doll ars</w>
Vor aus
Produk tiv
Kandid aten</w>
v o</w>
kl einen</w>
il o
esti tionen</w>
S ach
zentr ale</w>
ten :</w>
sel y</w>
health -
con ver
ra sch</w>
kri min
er b
St ro
Sec retary</w>
Cam er
view s</w>
suppor ted</w>
sch wier
ques tions</w>
public -
or s,</w>
equ al</w>
ativ e,</w>
ak ing</w>
Indi a’s</w>
Immobili en
7 0</w>
und ,</w>
p ain
ni e
nat ure</w>
kontrol lier
encoura ge</w>
eig entlich</w>
arbei ten,</w>
Wer t
Dur ing</w>
v ital</w>
speci fic</w>
ou t.</w>
inv est</w>
ad a</w>
Tur k
Jap ans</w>
Entwickl ung
über wie
wichtig ste</w>
stan den</w>
resp ect</w>
re au
polici es.</w>
of t
effec tively</w>
unterstütz t</w>
sp rü
sen ti
s ätze</w>
re b
k ament
ga p</w>
age ment</w>
advan tage</w>
Schrit te</w>
wi t
vor .</w>
ver li
ung en
t ung,</w>
poin ts</w>
ob vious</w>
Verbün deten</w>
Sch u
D ynam
zieh en,</w>
vor aus
so w
res tru
ac tive</w>
Nach dem</w>
4 0%</w>
3 .</w>
viel er</w>
min bi</w>
hous ing</w>
ell s</w>
a p</w>
US- Dollar</w>
S enk
Chanc en</w>
tak es</w>
schw in
sch .</w>
ro ökonom
leg en,</w>
gen e</w>
beding t</w>
ang s
Re alität</w>
Op position</w>
Mitglieds staaten</w>
F ur
ähn liche</w>
ow ,</w>
n ern</w>
m utz
it s,</w>
bark eit</w>
P a
Di rek
Bezieh ung</w>
sever e</w>
schaff en.</w>
reas ons</w>
einzel nen</w>
bu y</w>
b ond
ari es</w>
W all</w>
Schw äch
Li ban
H and</w>
w ent</w>
ologi e</w>
dou b
co alition</w>
bro ader</w>
ausländi schen</w>
Ver sprechen</w>
St ud
Gaz a</w>
verhinder n,</w>
rhet or
prak tisch</w>
man age</w>
früher en</w>
ff s</w>
au p
as y
adop ted</w>
Waff en</w>
S eine</w>
Regier ung,</w>
Perh aps</w>
Indi an</w>
H ist
wi lli
rat es,</w>
exc essive</w>
chil d</w>
Th ough</w>
Lin ie</w>
t a</w>
n ütz
gest at
adequ ate</w>
a ded</w>
D en</w>
ver bin
prec is
pl ans</w>
kl ar,</w>
for ni
fin ally</w>
T reas
St ell
Sowjet union</w>
N och</w>
Anrei ze</w>
ru ral</w>
poth ek
claim s</w>
besch leun
Organis ation</w>
Er folg
E N</w>
Altern ative</w>
x i
work .</w>
sch en,</w>
particul ar</w>
et ab
Vi sion</w>
V ladimir</w>
I C
An n
197 0
sto od</w>
haf t</w>
fol low</w>
Wider stand</w>
Tei le</w>
Ro bert</w>
Mis s
Lei der</w>
Bed ürf
w us
s low</w>
konn ten</w>
gegen sei
fre und
M ah
B ran
s ent</w>
kra ft
en jo
diejen igen,</w>
ar tige</w>
ali smus
He al
201 7</w>
schul den</w>
schn ell
region ale</w>
l .</w>
jen er</w>
h nung</w>
conc ern</w>
an gen</w>
Rah men
Kin der
7 .</w>
sp end</w>
ne t.</w>
nachhal tige</w>
lä u
kommen s</w>
er c
em in
da gegen</w>
d ung,</w>
M ed
Flücht ling
ä her
zw ing
there fore</w>
st ak
prot es
g l
for ec
ei m
ab gesch
Ph ili
Clin t
lö sen</w>
he ad</w>
har m
handel s
fac tors</w>
can c
Soli dar
Kon zep
Er höhung</w>
s qu
regi erung</w>
produc ts</w>
nis ,</w>
ing s.</w>
ho od</w>
gan ze</w>
economi es,</w>
differ ence</w>
di agno
deli ver</w>
cho ice</w>
attemp t</w>
Schwierig keiten</w>
Ex porte</w>
tek tion
ri g
p le</w>
n de</w>
mani pul
man chmal</w>
l ying</w>
fre qu
etab lier
a vi
Vertre ter</w>
G ar
zu .</w>
wh at
wan n</w>
Ri cht
Nachbar n</w>
Mit arbei
Leistungs bilanz
Groß teil</w>
Auf grund</w>
star ted</w>
most ly</w>
help ing</w>
ab sen
Zi vil
Ab hängi
sug gest</w>
proz ess</w>
elec tric
ech te</w>
bes itz
Parlam ent
Möglich keit,</w>
rep ren
b ing</w>
al te</w>
Trump ,</w>
Saudi -
S hi
G erich
toda y,</w>
ru m</w>
ou ri
ob en</w>
me t</w>
comp any</w>
c ity</w>
E mp
Con si
wor ds,</w>
know ledge</w>
infl ation
hei t
gu e</w>
argum ent</w>
Sarkoz y</w>
Produk tivität</w>
Konflik te</w>
. .
tro tzdem</w>
relev ant</w>
ob ser
n on
gro w</w>
dar aus</w>
Sad dam</w>
I re
200 3</w>
y ;</w>
ver di
pro ve</w>
jap anischen</w>
hä uf
for ward</w>
f ak
e )</w>
Syri an</w>
Portu g
Ministerpräsid ent</w>
Menschenrech te</w>
Basi s</w>
territ ori
rais ing</w>
bu reau
Th ir
Sch wer
Mac ron
BIP -
st atisti
sat lan
h ur
gi ving</w>
Krä fte</w>
Kamp ag
ten den
tempor ary</w>
s “</w>
on nen</w>
busin esses</w>
Them en</w>
Ph ase</w>
Finan zier
F onds</w>
7 -
inf ec
bar ri
en si
Unterneh men,</w>
Aus wei
Angel egen
äh r</w>
schle cht</w>
pro jek
fall en.</w>
emis sion
ar en</w>
announc ed</w>
Staat en,</w>
Fac eb
tig ,</w>
stat e-
spiel en</w>
solu tions</w>
him self</w>
gro ß</w>
ge prä
erheb lich</w>
en able</w>
an statt</w>
al lies</w>
Welt krieg</w>
Angel a</w>
ur ban</w>
surpl us</w>
som it</w>
palästinen sischen</w>
hat ten,</w>
foreign -
der er</w>
arm ed</w>
Spitz en
5 0
sch ool</w>
ri es
resul ting</w>
performan ce</w>
lau t</w>
busin ess
besteh enden</w>
at z
St att
S zenari
Mitglied schaft</w>
E st
vic tim
un ilater
ge gan
environ ment</w>
Brasili en</w>
wron g</w>
wen ig
t old</w>
ma xim
imple ment</w>
glob aliz
ent ing</w>
agreem ents</w>
T sch
Kom promis
Da zu</w>
up on</w>
tra ding</w>
to wards</w>
li mit</w>
grundle genden</w>
fall ing</w>
e i</w>
betei li
Krieg s
Bra zi
Ar men</w>
sum mit</w>
sch üt
man aged</w>
fol ge
Zentral bank
Sou verän
Rück kehr</w>
val ent</w>
ti tu
el ,</w>
comp et
Statt dessen</w>
R ak
Gefüh l</w>
Ex port
C lim
Besch ränk
resp ond</w>
pri son
niem and</w>
inn en</w>
ho use</w>
con sensus</w>
b ani
angem essen
Stad t</w>
Frü h
As sad</w>
An streng
st äd
niedri gen</w>
import ance</w>
h aus
geleg t</w>
expan sion</w>
economi es.</w>
bur den</w>
Ver trag</w>
Sp ra
Goo g
verfü gt</w>
pro sp
kl eine</w>
gen en</w>
gegenwär tigen</w>
gef ähr</w>
au er</w>
asiati schen</w>
agri cultural</w>
Ver ständ
or g
macro economic</w>
erforder lich</w>
er lau
bet on
ah n
agen da
Um fang</w>
widespre ad</w>
sh own</w>
program me</w>
in com
ff t</w>
entscheiden der</w>
enter pri
deep ly</w>
absen ce</w>
Aut or
um zu
protec tion
moder ni
inves tig
ein st</w>
comp li
chan ged</w>
associ ated</w>
ass ess
Israel ’s</w>
restru c
res s</w>
recei ved</w>
Mexi ko</w>
Erfahr ung</w>
verab schie
ut ri
tri ed</w>
strategi sche</w>
stabilit y.</w>
ne ar</w>
mit einander</w>
et er</w>
dem ands</w>
opp on
ent wickl
ah ar
S te
O ur</w>
t entei
steh t.</w>
protec tion</w>
polici es,</w>
ic k</w>
eh n
Pro gno
zusätz liche</w>
leg t</w>
institu tions,</w>
con tain
Schi ck
Aus druck</w>
won ach</w>
wirtschaft lich</w>
treat ment</w>
politi sches</w>
ous ,</w>
lat er</w>
h ung
Stu die</w>
Män ner</w>
Enga gement</w>
Arbeit nehmer</w>
200 8,</w>
1 8</w>
wi schen
le t
gü l
gew esen</w>
ger e
and a</w>
Schwellen länder</w>
Kul tur
Über wach
proper ty</w>
pres er
hal b
Spi el</w>
Ide en</w>
Gol d
Beh aup
B r
zei t
ro und</w>
reach ing</w>
manufac turing</w>
hund reds</w>
frei e</w>
Pro f
Al le</w>
w äch
ship s</w>
particul ar,</w>
ne ed
län ger
en tial</w>
d as,</w>
alisti schen</w>
Krank en
wer k</w>
ver wandel
ture llen</w>
tradition ellen</w>
radi cal</w>
medi cal</w>
O ver</w>
wor se</w>
imp eri
har dly</w>
frü hen</w>
equ ity</w>
d ul
Sp ain
Kin dern</w>
Forsch ungs
F ahr
zun ächst</w>
tig t.</w>
sow je
rel le</w>
off en</w>
lea ving</w>
con vinc
chan ging</w>
Bet ei
su d
pos ing</w>
gre g
bei tragen,</w>
W ür
Obam as</w>
An sicht</w>
y ?</w>
vi ously</w>
un able</w>
tier ten</w>
mis si
ie f</w>
ent repren
commer cial</w>
Mo der
Gipf el</w>
w rit
tig ten</w>
illen ni
cu st
W ill
Americ a,</w>
verbesser n.</w>
poli ce</w>
dri ve</w>
anders wo</w>
al t</w>
Q a
stand ard
run ning</w>
rec ord</w>
health- care</w>
figh ting</w>
f ar-
eh en</w>
W ohn
Gleich zeitig</w>
E N
woll en.</w>
sup posed</w>
st e,</w>
or e</w>
grupp en</w>
ex tra
elector al</w>
al loc
Z um</w>
Potenzi al</w>
Nam en</w>
A no
8 -
mit te
e di
Aus sichten</w>
pi en</w>
ide as</w>
ens uring</w>
dar über,</w>
bo om
achiev ed</w>
Pal ästinen
C i
will ,</w>
tho do
proble m.</w>
perman ent</w>
or .</w>
mö gen</w>
mor e,</w>
haupts ächlich</w>
entwickel t</w>
ah me</w>
R edu
Kore an</w>
ver gleich
sti eg
sav ings</w>
op s</w>
jähri gen</w>
d ah
ati v</w>
Hin der
pos es</w>
me dic
m eine</w>
B en
ne ,</w>
iz ed</w>
in dependence</w>
i or</w>
erneu er
ens er</w>
ehemali ge</w>
w ri
ter s.</w>
per cent
im posed</w>
e e
ali forni
ac qu
Medi kament
Demokrati en</w>
All gem
view ed</w>
reser ves</w>
m iddle</w>
ic o</w>
dis ku
dar .</w>
da v
Saudi- Arabi
Palästin enser</w>
Kul tur</w>
J er
strategi schen</w>
spr üng
ow ned</w>
mo un
get an</w>
d ab
curr ent-
bo ok</w>
Trupp en</w>
Jun i</w>
D el
Ara b
wä re.</w>
st en.</w>
produ zier
o l</w>
j ournali
gi bt.</w>
f lows</w>
anz en</w>
Tali ban</w>
typ e</w>
rema ined</w>
im possible</w>
gelö st</w>
con soli
Verb rei
Com mission
C y
A g
wech sel
unterstütz en.</w>
mensch lichen</w>
lek tu
israeli schen</w>
fast er</w>
eh old</w>
current- account</w>
Un sicherheit</w>
Tran spar
significan tly</w>
it alien
el n</w>
auster ity</w>
St elle</w>
Ni cht</w>
Exper ten</w>
Clim ate</w>
z ern
ous .</w>
minist er,</w>
lin es</w>
ir ing</w>
er schein
d rei
argu ed</w>
Stärk ung</w>
20 30</w>
soll ten.</w>
re publi
lück licherweise</w>
lich em</w>
import ant,</w>
f ör
else wher
ber ich
a y</w>
Währungs fonds</w>
Mo s
Iraq ,</w>
wh el
trau m</w>
tig te</w>
st es</w>
langfristi g</w>
k ü
hän gt</w>
Stat t</w>
N ic
Mon ate</w>
Glau bwür
Di alo
nah e
kon vention
der s,</w>
clos er</w>
al though</w>
ag o.</w>
aff air
Regu lierung</w>
Ber lus
At lan
An dere</w>
über win
mus s.</w>
isch es</w>
ethni c</w>
Lock erung</w>
Anle ger</w>
verständ lich</w>
verl oren</w>
unter schei
ou t,</w>
li t
i ma
househol ds</w>
erhal ten,</w>
Y et,</w>
Verl ust</w>
Verfass ungs
Geh eim
Amts zeit</w>
wi se</w>
v it
targe ts</w>
promis es</w>
mort g
indust r
hol ding</w>
erwei le</w>
er es
au ßerdem</w>
adv is
ö tz
st em
gu ten</w>
exp endi
bo om</w>
W ill</w>
Schick s
Nat ur
Ma i</w>
rech ts
possi ble.</w>
leg en.</w>
Vor sitz
Israel s</w>
Innov ation</w>
Chin esen</w>
Berlus con
( S
ub ar
socie ties</w>
invest ment,</w>
häl t</w>
genann te</w>
dou bt</w>
construc tion</w>
Regierungsch efs</w>
w ent
ti ef</w>
pla yed</w>
ier t.</w>
fe at
deb t.</w>
an schließ
Staatsan leihen</w>
Hy pothek
Au gen</w>
1 7</w>
w on</w>
possi bility</w>
olog y</w>
k rank
ed -
depen ds</w>
d :</w>
ack now
Sch wei
Republi kaner</w>
Nu klear
M ubar
Ano ther</w>
zö ger
zu gr
wei s</w>
weap on
lo sen
g n
enor mous</w>
ch a
Koso vo</w>
Gesetz e</w>
wer b
ver an
sy n
sier te</w>
re gu
pro ject</w>
berei t
au tor
as p
G- 20</w>
E S
Bank ,</w>
versuch t,</w>
sier en.</w>
sch utz
is b
impro ved</w>
comp lic
O S
N az
we hr
normal erweise</w>
n den</w>
gener ate</w>
gen cy</w>
end lich</w>
ali sten</w>
W er</w>
R endi
Produk te</w>
sy mp
j ah
gestell t,</w>
differ ences</w>
beste hen</w>
alism ,</w>
Mäd chen</w>
L age,</w>
3 0%</w>
1 4</w>
work ,</w>
unterschied lichen</w>
s car
recei ve</w>
ran gi
prä sent
precis ely</w>
pl ötz
get ting</w>
ex tent</w>
are a</w>
` `
univers al</w>
on es</w>
mer z
main ly</w>
laun ched</w>
lat er,</w>
ger ing</w>
fac es</w>
H it
For derungen</w>
B om
sour ces</w>
sec ond
saf e</w>
reg ard</w>
over whel
n i</w>
lad es
ges pro
au to
Wieder auf
Städ te</w>
O k
An der
si des</w>
sei ,</w>
pra gmati
leist ung</w>
könn ten,</w>
great est</w>
constitu tional</w>
consoli d
be kämpf
Th at
Phili pp
ähn licher</w>
undermin e</w>
member ship</w>
kün dig
is tic
er s’</w>
d ach
cri ses</w>
auth ority</w>
Unterschie de</w>
Hilf s
B ern
verhinder n.</w>
verein bar
sei en</w>
sch wei
hous ehold</w>
fac ed</w>
er maßen</w>
co -
bo ok
bevölk erung</w>
ar y.</w>
any thing</w>
ab ri
Asi a,</w>
sam m
on ed</w>
market .</w>
kn ü
ide ologi
eb en,</w>
dep end</w>
B üro
vi a</w>
mid -
m ur
l ending</w>
fin al</w>
bewus st</w>
will ing
wei s
minist ers</w>
lös en.</w>
T age</w>
O -
Bo tschaft</w>
Bil l</w>
Arme e</w>
tren d</w>
sei .</w>
nö tig</w>
füh l
ear lier</w>
Wettbewerb sfähigkeit</w>
Ger ech
un gefähr</w>
ti gh
system ati
stimm ung</w>
frü her</w>
di sche</w>
charac ter
K ir
zusetz en,</w>
m idd
den ken</w>
contribu te</w>
al ed</w>
W eg
System s</w>
Kur s</w>
Gewinn e</w>
F er
Demo kraten</w>
Bang lades
1 00
world wide</w>
strugg le</w>
s ought</w>
par tei
nom in
eingesch ränk
be f
Waff en
Turke y’s</w>
Sor gen</w>
Lebens mittel
Fis kal
D ok
ver teidig
tran si
steu er
lim its</w>
high est</w>
ei ter
W ladimir</w>
Uni on.</w>
Er wärmung</w>
weit gehend</w>
sub ject</w>
region .</w>
mus s,</w>
mon it
folge dessen</w>
fac tor
erk ennen</w>
berei t,</w>
Wo che</w>
Institu te</w>
m einer</w>
hoh er</w>
ha gen</w>
h nen</w>
economic s</w>
apaz itäten</w>
al ter</w>
Israel ,</w>
Geg ner</w>
stat es,</w>
sig n</w>
perc ei
on going</w>
loss es</w>
komm t,</w>
ac tiv
War en</w>
Wahrschein lichkeit</w>
Verteidig ung</w>
S ache</w>
Ma ß</w>
20 -
ti vel
medi zin
intelli gence</w>
in ci
So gar</w>
Kredit ver
Bei trag</w>
we g
unterstütz en,</w>
um -
sel be</w>
sch u
liquidi ty</w>
i ze</w>
gewor den</w>
f und</w>
dar um</w>
berei ch</w>
W un
Abhängi gkeit</w>
1 1</w>
zei chen</w>
t )</w>
stud ents</w>
ma d
li fer
impro ving</w>
Wel th
Mexi co
F S
Europ a,</w>
Erfahr ungen</w>
Bu ch</w>
Auswei tung</w>
Afric a’s</w>
work ed</w>
si e,</w>
rat es.</w>
poten tially</w>
gehör en</w>
ge tro
th i
cle ar
back ed</w>
assist ance</w>
aggres si
Wi th
T reib
Partn er</w>
I I</w>
GDP .</w>
An sicht,</w>
zunehmen de</w>
zu zu
un preced
democra cy,</w>
consider ed</w>
as sen</w>
Stim men</w>
Sch aden</w>
Luf t
H ong
ziel e</w>
ur sprüng
ung sp
tig .</w>
fol gen</w>
f ell</w>
Sch ätz
Kom bin
Entscheid ungs
Consi der</w>
sa w</w>
n ung,</w>
im pose</w>
for dern</w>
compreh ensive</w>
N ul
F T
soll .</w>
promis ed</w>
per spec
notwen dig</w>
meas u
län der
las sen
bestimm te</w>
W asser</w>
Umstän den</w>
T u
Palestini ans</w>
An ders</w>
umfassen de</w>
st age</w>
rais ed</w>
centur y.</w>
Gren ze</w>
Deutsch lands</w>
Bes u
te te,</w>
s ati
rei se</w>
jo in</w>
gen ie
capit a</w>
bro ad</w>
bes tim
at ur</w>
K u
I st</w>
H ong</w>
r a</w>
pric es,</w>
pl au
ne ut
en ough
chil d
ank s</w>
Su per
201 8</w>
proc ess.</w>
inclu des</w>
g ten</w>
ben den</w>
zur ück</w>
sp ace</w>
soll ,</w>
human it
größ tentei
größ er</w>
consum ers</w>
cent er</w>
Tre ffen</w>
Kon gres
Industri e
8 0</w>
t äu
steigen den</w>
nor mal</w>
k a,</w>
jewei ligen</w>
gesch eiter
ei st
a un
Pati enten</w>
B l
B -
Arbeits losen
äu ß
war ming</w>
tri eben</w>
re ti
look ing</w>
es ”</w>
belie f</w>
Z ins
Verbin dungen</w>
K lu
Famili en</w>
vi ce</w>
unterstütz en</w>
ter n,</w>
st aat</w>
sion al</w>
re ferendum</w>
h it</w>
at en,</w>
afri ka</w>
No t
Konsen s</w>
H us
zu stellen.</w>
zu fried
un less</w>
steu er</w>
so for
look s</w>
invest ment.</w>
demo graph
R ett
Mär z</w>
M ad
6 0%</w>
tre ten.</w>
threat s</w>
parliament ary</w>
p her
ier t,</w>
geo political</w>
genau so</w>
g ren
er weiter
blei ben,</w>
aufzu bau
an geht,</w>
re vers
i es</w>
förder n.</w>
f ying</w>
dä mm
With out</w>
Leist ungen</w>
Ken ne
’ s.</w>
äß ig
sm aller</w>
region ’s</w>
letz t</w>
innov ative</w>
i ded</w>
fa il</w>
en falls</w>
eb ung</w>
comp ens
aus geh
L ohn
B as
so .</w>
pro ved</w>
o st
k ar
jus tifi
inte gri
il lu
cop e</w>
Ch á
Aust rit
tal ks</w>
il .</w>
erle i</w>
entscheiden de</w>
cal cul
Verlu ste</w>
Beschäf tigung</w>
sustain ed</w>
richt ungen</w>
re alen</w>
mark et,</w>
ex is
d essen,</w>
comm unities</w>
ach tet</w>
Li ke</w>
Heal th</w>
ähn lich</w>
schwieri g</w>
restor e</w>
go es</w>
di ver
an te</w>
Ereig nisse</w>
Chá ve
( wie</w>
w ages</w>
verfü gen</w>
tion ary</w>
it en</w>
in e,</w>
government s,</w>
dab ei,</w>
Währ ungen</w>
Verbrei tung</w>
Regi on
Inter nationale</w>
I P
F alls</w>
Ak teure</w>
tig keiten</w>
ru s</w>
re min
problem s.</w>
pre fer
nutz en,</w>
mom ent</w>
k li
gre en
g aran
Tats ache</w>
So cial</w>
Journali sten</w>
mo ving</w>
li zier
ges und
ali sts</w>
St eigerung</w>
Produktiv itäts
M ärkten</w>
Gre en
Fron t</w>
tion ing</w>
saf ety</w>
T od</w>
J in
Hong kon
spi ri
rei fen,</w>
pro min
mon th</w>
mo tiv
Washing t
Tren d</w>
Lateinameri ka</w>
L eute</w>
Janu ar</w>
Fähig keiten</w>
where as</w>
versch aff
un wahrschein
tru ly</w>
sp ap
sol v
s ä
percent age</w>
model s</w>
ma r</w>
deci ded</w>
Th ail
T em
zu vor</w>
st ration</w>
prot ests</w>
princip le</w>
poor est</w>
mak roökonom
il leg
größtentei ls</w>
fri end
den den</w>
appropri ate</w>
any one</w>
M ik
L ag
C D
Ameri kan
Al so</w>
th ough
soli di
glei che</w>
gesell schaft</w>
f ill
dise ase</w>
bekann t</w>
Stra f
Mala ysi
überwie gend</w>
tran spor
st ro
sier t,</w>
s ni
hat ten.</w>
Verbrauch er</w>
Taiw an</w>
Krem l</w>
zukünf tige</w>
zei gen</w>
viel mehr</w>
regul ation</w>
offizi ellen</w>
l ungs
k a
ju di
in su
ew s</w>
enti rely</w>
com men
bal ances</w>
aff ord</w>
Regi mes</w>
Be am
A D
198 0er</w>
x is</w>
j i
gre en</w>
ex erc
der s.</w>
decision -
ab solu
Po si
Grün de</w>
Erwar tungen</w>
Bel ast
staat licher</w>
n utri
es ?</w>
cht sh
So ci
Klimawandel s</w>
D enk
tu red</w>
sier en,</w>
lin ien</w>
l ungen</w>
impor ts</w>
hö hen</w>
g ünsti
ent ’s</w>
defiz it</w>
bank s,</w>
Staats -</w>
Rent en
schn eller</w>
opini on</w>
in ess</w>
b las
ar ri
Wissenschaft ler</w>
Vor stell
Verpflich tungen</w>
Mo sk
IW F
sur v
societ y.</w>
shar p</w>
nach zu
k lang</w>
ge geben</w>
decad es.</w>
b ond</w>
angeb lich</w>
Verständ nis</w>
Innov ationen</w>
west liche</w>
unterschied liche</w>
sch em
mul tin
fa i
Schlüs sel
Kom muni
securit y,</w>
p el
mes sage</w>
hand ,</w>
dis crimin
Ukrain e,</w>
Re al
Co unc
Atom waffen</w>
te dly</w>
gesetz t.</w>
J am
rich tige</w>
nahe zu</w>
er w
di ger</w>
ch arg
ahe ad</w>
ad ded</w>
F at
Beg ri
spiegel t</w>
gen utz
f el</w>
col le
an t.</w>
Kore a,</w>
ur es,</w>
stell te</w>
develop ment,</w>
bel ast
ag greg
Geb i
än d
Über dies</w>
wor st</w>
vol um
twen ti
qu ite</w>
in -
heiß t</w>
gener ally</w>
ga ve</w>
alisti sche</w>
again ,</w>
Y o
Prinzi pien</w>
Kri sen</w>
G ul
B or
wün sch
what ever</w>
wan ted</w>
steigen de</w>
stat e.</w>
nam e</w>
caus es</w>
ans wer
al lowing</w>
GDP ,</w>
6 .</w>
st rei
principl es</w>
ent h</w>
at om
Zun ahme</w>
We ge</w>
Strei t
St ur
P eri
Fu ß
Dynam ik</w>
C C
Über gang</w>
ter ung</w>
pro gno
mög liche</w>
erheb liche</w>
ein iger</w>
e .”</w>
contr ary,</w>
ausreich end</w>
ant ly</w>
St ag
S a
Russ land,</w>
R aum</w>
P aci
Lauf e</w>
G as
( or</w>
skill s</w>
s ).</w>
befin den</w>
ac adem
Wissen schaft</w>
M äch
In folgedessen</w>
Geb ur
Diplom ati
Beschäftig ungs
schi en</w>
kur bel
di ed</w>
de vast
ation en,</w>
Treas ury</w>
Nach hal
Kombin ation</w>
Dru ck
soll ten,</w>
per sist
län e</w>
ir anischen</w>
declar ed</w>
cut ting</w>
Wo chen</w>
V ölk
USA .</w>
Präsident schaft</w>
Person en</w>
Kon sequ
Fre m
Bi o
öffent licher</w>
prosp ect</w>
offen sichtlich</w>
m ere</w>
imp lies</w>
farm ers</w>
ex ter
accoun ts</w>
a cht</w>
Pro to
Ar ten</w>
20 3
w ettbewer
terror ism</w>
entwickel n</w>
conserv ative</w>
cht fer
choo se</w>
an erkann
W ol
Kapit alismus</w>
B innen
4 .
lo ans</w>
kon tro
itsel f.</w>
er enden</w>
doll ar
democra cy.</w>
and ing</w>
am s</w>
allgem einen</w>
Schicks al</w>
Mul ti
J ust</w>
Glaubwür digkeit</w>
war s</w>
vo ted</w>
ver k
under lying</w>
suppor ting</w>
niedri ger</w>
lä ss
jem als</w>
dra w</w>
di min
aut onom
O s
NATO -
An satz
A lex
3 00</w>
än der</w>
stat es.</w>
stand ,</w>
sec u
kol lek
entwickel n,</w>
deb t,</w>
z one</w>
viol ent</w>
t ”</w>
sec re
schle chte</w>
sch uss</w>
par t,</w>
kon kre
ge mon
distribu tion</w>
Z er
Süd korea</w>
Groß en</w>
Dec ember</w>
recogni zed</w>
mon th,</w>
leben s
lear ned</w>
le ben,</w>
fo li
er geb
en forc
allgem eine</w>
Ver brechen</w>
Senk ung</w>
Grün den</w>
200 2</w>
( in</w>
sol cher</w>
sier ten</w>
prosper ity</w>
gemein sam
establish ment</w>
cas es,</w>
accoun t
Um feld</w>
J ob
An sichten</w>
zü gi
s es,</w>
oo k</w>
geführ t.</w>
fic ation</w>
beding ungen</w>
b lu
ar di
Zi vili
Y u
Finanz institu
F äl
A pp
1 5
y .”</w>
t- wing</w>
sex u
refuge e</w>
gewis sen</w>
defin i
al em</w>
aggres sive</w>
Kri tik</w>
Diskus sion</w>
Def l
Aus gab
Auf bau</w>
193 0
wh ole</w>
reich er</w>
partn ers</w>
midd le-
in en</w>
g ung,</w>
fall en,</w>
eri e</w>
einz igen</w>
death s</w>
biet en,</w>
Nahrungs mittel
Legitim ität</w>
Krem lin</w>
man ag
fossi l</w>
bes ei
at trak
' '</w>
Ü ber</w>
willing ness</w>
vollstän dig</w>
vir tually</w>
tran satlan
ira k
gra fi
gehö ri
expla in</w>
experienc ed</w>
every thing</w>
bri d
be vor
allgem ein</w>
T P
res ili
lie f</w>
lear n</w>
law ,</w>
in her
form al</w>
es ien</w>
dri ving</w>
combin ation</w>
ci es,</w>
ander em</w>
ag ue</w>
H el
Ar tik
proble mati
off ered</w>
fre e-
erhöh en.</w>
aff ect</w>
Versuch ,</w>
King dom</w>
wi esen</w>
versu cht</w>
typ ically</w>
tal k</w>
prof it
op ol
lie ß</w>
ger .</w>
en den
diejen igen</w>
dan ger</w>
d y
be handel
autor it
ab sor
Z y
Qu ar
Än derungen</w>
with draw
wer ke</w>
stat e,</w>
st ory</w>
politic s.</w>
p on
nah m</w>
los ing</w>
k le
gesetz t,</w>
fre m
determin ed</w>
dem ,</w>
Har v
Ex por
Ern ähr
Anstreng ungen</w>
ter -
sp rich
produk tion</w>
prepar ed</w>
li ter
comp on
ac tion.</w>
Wirk ung</w>
Ok tober</w>
Indi ens</w>
F est
Energi en</w>
Bla ir</w>
Är a</w>
stre am</w>
securit y.</w>
r i</w>
ment en</w>
institu tions.</w>
do cum
dis cipl
combin ed</w>
an fäl
M illenni
weiter es</w>
trä ch
sec uri
quar ter</w>
ch em
candid ate</w>
Regier ungen,</w>
Re de</w>
E lek
Com mitte
senk ungen</w>
s hr
ro ad
offizi elle</w>
nie der
lä uf
jähr lichen</w>
initi ative</w>
des to</w>
denk en,</w>
200 9,</w>
ö k
Über zeu
wei ß
verring ern.</w>
un denen</w>
te ach
sicher ungs
id ing</w>
dies ,</w>
dict ator
bo und</w>
bei ,</w>
Con gres
ver stehen,</w>
v eh
ts etz
thin k
system s,</w>
subsi dies</w>
soli dar
intellec tual</w>
happ en</w>
exp and</w>
ex u
erklär te</w>
er ’s</w>
b ust</w>
au ßen
all zu</w>
Unter schied</w>
R at
Ein nahmen</w>
E uroz
Commun ist</w>
zi fi
wieder her
jen en</w>
in comes</w>
des per
deci de</w>
co ver</w>
behör de</w>
ar ms</w>
ander es</w>
ab ziel
Qa ed
Kommuni k
Defiz ite</w>
Con stitu
Best and
19 .</w>
sti c</w>
rech ter
nation s</w>
em b
consider able</w>
be wirk
amerikan ischer</w>
Rus sen</w>
N or</w>
Gesch ä
AID S</w>
ver wal
tool s</w>
mittl erweile</w>
lok alen</w>
jap anische</w>
i ’s</w>
har t</w>
di alo
biet en.</w>
began n</w>
arran ge
an i</w>
Russi a.</w>
Nutz ung</w>
Kon tro
K lim
tre ten,</w>
ten en</w>
sf äh
ru ling</w>
ne y</w>
kri ti
elec tion,</w>
de posi
commun ist</w>
Ver sch
Turk ish</w>
Per spek
M oh
Jul i</w>
Initi ativen</w>
w ag
sig ned</w>
loss en,</w>
im migration</w>
et te</w>
ed ing</w>
H ill
( oder</w>
ver he
u si
lei den</w>
industri es</w>
i -
guarante e</w>
griech ischen</w>
gen :</w>
ge zeigt,</w>
f ar,</w>
continu ing</w>
Mar ch</w>
Franc e’s</w>
Einig ung</w>
Anhän ger</w>
woh ner</w>
t reib
spec ul
ri gi
pres su
per son</w>
on line</w>
l ass</w>
fac tor</w>
et h</w>
auf geb
ativ e.</w>
K yo
F il
An erkenn
sau ber
ri es</w>
pa ying</w>
ow ner
hät te.</w>
einz ig
ck en</w>
be hinder
amoun ts</w>
Wirtschafts wachst
Souverän ität</w>
Palästinen ser
Kon ferenz</w>
In dem</w>
Bes timm
( which</w>
ä dig
um b
sty le</w>
reser ven</w>
pla ying</w>
li ty</w>
fre i</w>
e ch</w>
constra in
author itarian</w>
aus wei
Son der
Liban on</w>
In stabilität</w>
EC B
Be fürwor
BE R
Americ a's</w>
AID S
tra ining</w>
tra de,</w>
pay ments</w>
on g-
om bi
happ ened</w>
g te</w>
estim ates</w>
es ten</w>
Zu gleich</w>
ub lik
stärk sten</w>
servic es,</w>
no t.</w>
me ant</w>
lo g
hin dern</w>
gan gs</w>
frei lich</w>
easi er</w>
den noch</w>
R adi
Parli ament</w>
Egyp t</w>
Aus bil
zurück .</w>
t ask</w>
so und</w>
presid ent,</w>
legitim acy</w>
inten sive</w>
eng age</w>
en su
derar tiger</w>
bring t</w>
acc umul
abili ties</w>
Un der</w>
Sub ventionen</w>
Po wer</w>
unpreced ented</w>
ri sche</w>
ph ilosop
mensch liche</w>
less on</w>
es cap
er höhen</w>
econom ist</w>
candid ates</w>
Ungleich gewich
N ow,</w>
Menschenrech ts
M and
K ä
Arbeitsp lat
tor ,</w>
behaup ten,</w>
add af
Famili e</w>
Ein w
1 3</w>
ther ap
si eben</w>
prospec ts</w>
off ice</w>
ar e,</w>
ank en</w>
Sp it
Mom ent</w>
Bei de</w>
wi der</w>
unabhängi g</w>
tru th</w>
ter ed</w>
st rö
sou thern</w>
soll en.</w>
schütz en.</w>
prev ail
genom men.</w>
erh iel
di sin
c ent</w>
borrow ing</w>
abhängi g</w>
Gesprä che</w>
Eng land</w>
Doll ars</w>
4 ,
nat ur
interest s.</w>
exc e
ak tionen</w>
Vor schlag</w>
Jahr es
sen ior</w>
other s.</w>
el li
des ire</w>
call y,</w>
best and</w>
ben e
be obach
alism .</w>
Sch utz
2 5%</w>
wissenschaft lichen</w>
verb unden</w>
sch merz
region s</w>
per su
off ers</w>
er leichter
enc es.</w>
assu mp
Z wischen
Stre et</w>
Krank heit</w>
Jahr en,</w>
Ak tion
to t
tem perat
s cor
li fe
hr en</w>
forder ungen</w>
fe wer</w>
employ e
ch en
ch eck
be wahr
Vor teil</w>
Republi k</w>
Ko alition</w>
K atastrophe</w>
8 0%</w>
waff en
star ting</w>
om en
n ers</w>
gesti eg
f ach
comple te</w>
besser en</w>
Veränder ung</w>
Studi en</w>
öffent lich</w>
prof its</w>
peop le’s</w>
för dern</w>
c .</w>
Republican s</w>
Prior ität</w>
Milit är</w>
Gelegen heit</w>
G l
Demo crats</w>
D roh
199 0</w>
te ch</w>
schließ en,</w>
promo ting</w>
leader s,</w>
kon kur
go als</w>
gesch i
at titu
Protes te</w>
O ther</w>
Lö hne</w>
Kri sen
Itali an</w>
Fra u</w>
For eign</w>
Bür gern</w>
verschied ene</w>
un ru
s es.</w>
religiö sen</w>
rat ing</w>
pen sion</w>
lok ale</w>
kill ed</w>
dist inc
de fl
auth ori
addres sing</w>
Zwei fel</w>
R et
Organiz ation</w>
Muslim s</w>
sel l</w>
over come</w>
j a</w>
is er</w>
hin aus
glau bwür
ard less</w>
ab sol
Nu n</w>
re di
pro vo
other .</w>
marg in
kre di
gestell t.</w>
ge kehr
er ungen</w>
ep i
adv ance</w>
Um gang</w>
R het
L eh
Gef äng
setz ungen</w>
ra tional</w>
neh men
im pe
expect ations</w>
des er
System e</w>
Nat ur</w>
K enn
D P
AS E
änder n.</w>
tä ts
struc ture</w>
s ,”</w>
p ru
histor ischen</w>
hel fen</w>
hear t</w>
er hol
con t
ati ver</w>
Un ru
Tag es
201 0,</w>
fl üsse</w>
descri bed</w>
b lin
asi en</w>
achiev ing</w>
Universi tät</w>
Su stain
Mit tl
Kl ein
Ah mad
mit g
ic ally,</w>
g one</w>
f low</w>
ex plan
de t
c li
beschleun ig
be frei
adop t</w>
Venezuel a</w>
sk ri
sch lu
ro lle</w>
rec ently,</w>
niem als</w>
mi tig
ließ en</w>
li z
lan gem</w>
gehör t</w>
c row
Z war</w>
Kontin ent</w>
Kampag ne</w>
Identi tät</w>
A be</w>
öl le</w>
view ,</w>
un sten</w>
profi tieren</w>
mor e.</w>
lead s</w>
i ed</w>
i d,</w>
es )</w>
ell or</w>
dies el
bor n</w>
anc ing</w>
Z erstör
Treat y</w>
Stat es.</w>
Re gel</w>
Mein ungs
stron g
steh ende</w>
set ting</w>
schaf t.</w>
ra tion,</w>
pp ing</w>
ob st
ly mp
ke eping</w>
kan did
gewinn en</w>
fear s</w>
entrepren e
en .“</w>
emerg ed</w>
dür f
bestimm ten</w>
be geg
Wir d</w>
Mex ico</w>
Ein klang</w>
Bern ank
7 0%</w>
zer o</w>
versch mutz
re ac
politi k,</w>
plac es</w>
f le
dam ali
caus ing</w>
argumentier en,</w>
Parlament s
Nation alismus</w>
M ari
Jun e</w>
Iraq i</w>
Hä us
wei te</w>
ver sprech
ro om</w>
lif e.</w>
frei heit</w>
deca de,</w>
Or b
M ut
Flu g
E mpf
ü ß
war m
ti ci
t went
spe ech</w>
sec tors</w>
no t,</w>
m us</w>
läs st.</w>
gir ls</w>
betro ff
Viet nam
E ing
D ass</w>
Cour t</w>
1 6</w>
wichtig ,</w>
un möglich</w>
plau si
neg ativen</w>
n am</w>
moder ne</w>
meas ure</w>
exper ts</w>
ci es.</w>
bring ing</w>
apit al</w>
Vermögenswer te</w>
T el
Rhet ori
Projek te</w>
Noten bank</w>
Industriel ändern</w>
Er inn
Deutsch land,</w>
Brexit -
Afghanist an,</w>
ver teilung</w>
sicher zustellen,</w>
seh en.</w>
m ess
lä ufig</w>
el y.</w>
ad ly</w>
Projek t</w>
F ach
t wi
sp ür
reflec ted</w>
priv ati
peri pher
grow n</w>
ern ähr
equi valent</w>
effici ency</w>
Schul d</w>
Politi k,</w>
L a
unter zeich
t nis
stän de</w>
re leas
fuel s</w>
bemerk enswer
ar ing</w>
a im</w>
Ver schul
Un gar
Stärk e</w>
Mitglie dern</w>
Mitgli ed</w>
H aus
te urop
sp ort</w>
righ ts,</w>
rich tigen</w>
propos al</w>
perc ep
or ing</w>
inten ded</w>
gu n</w>
futu re,</w>
coll abor
an den</w>
T wo</w>
R au
Größ e</w>
C ub
An zeichen</w>
198 9</w>
wohl hab
win d</w>
wei st</w>
ter m,</w>
sp ie
nation alist</w>
führ ten</w>
drit te</w>
degre e</w>
ch e,</w>
UN O</w>
I S</w>
Er weiter
Dro gen
year ’s</w>
und en.</w>
shor t,</w>
s ),</w>
nu klear
maintain ing</w>
inv estitionen</w>
ho sp
car ry</w>
bei .</w>
Vor gän
Um welt</w>
Stabilit ä
Noten bank
Investi tion
über mäß
zur eich
tro ops</w>
strength ening</w>
steig en.</w>
repres ent</w>
obst ac
niedri g</w>
labor -
ic ,</w>
gewi ss
f ill</w>
commodi ty</w>
bus ines
aggreg ate</w>
ad ox
T al
O per
J i
tr a</w>
stärk ere</w>
stän dig</w>
st rau
sor gen,</w>
o d.</w>
l ac
jus tice</w>
gel ing
g ame</w>
fäll t</w>
f s</w>
euroz one’s</w>
equ ally</w>
ein gesetzt</w>
Intel li
, "</w>
visi t</w>
under stand
under p
um bi
suff er</w>
m äh
m t</w>
läs sig
less ons</w>
ing ”</w>
herrsch t</w>
führ t.</w>
freed om
fo ur
as si
Syri a,</w>
Mig ration</w>
Ital y,</w>
Argentini en</w>
Ökonom ie</w>
zuneh men.</w>
wettbewer b
umfassen den</w>
qu o</w>
possi bly</w>
oft mals</w>
notwen dig
fir m</w>
determin e</w>
deep er</w>
an er</w>
alli ance</w>
af ter
Sch o
Rez ession
Orb á
OEC D</w>
J etzt</w>
äußer st</w>
st ain</w>
sh ilfe</w>
se ven</w>
schwach en</w>
ra dic
physi cal</w>
lich keit,</w>
lich en,</w>
kämp fen</w>
ein kommen</w>
be vorzu
ar ch</w>
and .</w>
V oll
O der</w>
Bau ern</w>
ten sions</w>
tats äch
suff ering</w>
shar p
r ar
publi shed</w>
invol ved</w>
gei sti
f em
ei ght</w>
e ast
defin ed</w>
Wert pap
Sp ain</w>
Finanz minister</w>
C open
wi l
tur ning</w>
sup pl
sub sequ
strategi e</w>
oh l</w>
moder ate</w>
le d.</w>
kur z</w>
j ourn
issu ed</w>
Zei tal
T B</w>
P en
Gefahr ,</w>
Brazi l</w>
zunehmen den</w>
verring ern</w>
techni cal</w>
system s.</w>
re ale</w>
plac e.</w>
billi ons</w>
Vor stellung</w>
Klu ft</w>
Bli ck</w>
Arbeits kräfte</w>
tion ed</w>
st em</w>
peac eful</w>
n utzen</w>
legitim ate</w>
land s,</w>
indi schen</w>
ho sti
ein her
credi ble</w>
cra cy</w>
ch ain
blam e</w>
a g</w>
Zei traum</w>
Inter vention</w>
Eff izi
Al -
wor ry</w>
vor über
tor s,</w>
scienti sts</w>
schließ en.</w>
quali fizier
necess arily</w>
kn app
administ ration
Sch ä
Hill ary</w>
Herr schaft</w>
ä ß</w>
tes ten</w>
servic es.</w>
rati o</w>
emp i
e ded</w>
ausge drück
auf bau
anc es,</w>
Uni on’s</w>
UN O-
Rechts staat
R igh
Partner schaft</w>
Man n</w>
Kon serv
F ed
Eng li
Braz il,</w>
Angri ffe</w>
ver ges
op ening</w>
gesch lossen</w>
gel ang
ex chan
e an</w>
bes u
TO N</w>
P an
O lymp
Nigeri a</w>
Gleich gewicht</w>
De pres
wider spiegel
u kra
spar tn
ro und
per form
new spap
k atastrop
größ erer</w>
glau b
gegen über
extrem ely</w>
comm uni
cel eb
at es,</w>
Le a
Land wirtschaft</w>
Ins besondere</w>
H aus</w>
stabilit y,</w>
pri mar
niedri g
heav ily</w>
ge grün
fal t</w>
exp lic
ermöglich en,</w>
dav on,</w>
barri ers</w>
b ac
aliz ing</w>
al u
affec ted</w>
No bel</w>
Industri e</w>
th ei
num bers</w>
nah e,</w>
massi ven</w>
en ken</w>
ab gel
T ex
Russi ans</w>
Ost europ
Kon sum
Dat en
un zureich
put ting</w>
pro lifer
over -
ous ly,</w>
lieg en.</w>
liber alen</w>
k ept</w>
har d
hal f-
for es
f ek
I ron
Gesch lech
A p
2 5
über greif
ver mittel
uncertain ty</w>
progra mm
p ace</w>
op tion</w>
glau ben</w>
eful ly</w>
believ ed</w>
and -
W oo
Inform ations
H af
A N</w>
199 9</w>
Ä hn
zw angs
twenti eth</w>
sor gung</w>
sector ,</w>
revenu es</w>
rema ining</w>
pl es</w>
nar ra
le b
im per
den de</w>
bank rup
Welt krieg
Ver k
Proble men</w>
M ehr</w>
Chri st
übersch rei
wh ich,</w>
samm lung</w>
intel lig
implic ations</w>
for war
electric ity</w>
br in
Wis sen</w>
Viet nam</w>
Universitä ten</w>
Trump -
Or t</w>
Mus har
L I
v ed.</w>
to x
the ory</w>
th eit</w>
sp read
sol ve</w>
shar ehol
pric es.</w>
jewei ls</w>
gain ed</w>
essen tially</w>
erhöh t</w>
domin ated</w>
demand .</w>
credi bility</w>
be ar</w>
Wirk lichkeit</w>
Vol k</w>
Peop le</w>
är msten</w>
versu chen</w>
verbesser n</w>
un t
th s</w>
s ache</w>
haf te</w>
g ol
fl uss
f ach</w>
dar ,</w>
betrach ten</w>
be k
Res ol
un bedingt</w>
si scher</w>
fol gt</w>
exac erb
activi ties</w>
S w
Frankreich s</w>
tari ffs</w>
rat e.</w>
langu age</w>
l enk
im men
bank s’</w>
Terror isten</w>
St abili
Maß e</w>
Mal aria</w>
Konsu m</w>
Argum ent</w>
zer r
tra in
promis ing</w>
hand s</w>
gewor den.</w>
fuel ed</w>
bestimm t</w>
be kommen</w>
Pakist an,</w>
L ist
2 1.</w>
ver hindern</w>
tri es</w>
sor gen</w>
jo int</w>
gew ach
exp ensive</w>
dou ble</w>
der i
def end</w>
Steuer zahl
Prinzi p</w>
M ass
Gra d</w>
B ig</w>
tax pay
soll en,</w>
schließ en</w>
proc ess
presiden cy</w>
prac ti
initi atives</w>
geschaff en</w>
bank ers</w>
ak tiv</w>
Sinn e</w>
Schei tern</w>
Nach fol
Gener ationen</w>
know s</w>
islam ischen</w>
histor y,</w>
für ch
establish ing</w>
c t
aus ch</w>
P RI
Indi en,</w>
v ent
soll en</w>
s äm
off enen</w>
n ur,</w>
knü pf
kl are</w>
dr äng
do es
de tail
befin det</w>
West ens</w>
Viel mehr</w>
Risi k
Nic ol
N ich
Bush -
ähn lichen</w>
Ökonom ien</w>
z z
ver letz
ro ll
ministeri um</w>
jus ti
it z</w>
h .</w>
gezw ungen</w>
en g</w>
be grün
W erk
Re präsent
v e-
treat y</w>
tel l</w>
tan e
prei s</w>
poin t,</w>
mon et
kam en</w>
hol ds</w>
gest ütz
entwickel te</w>
dür fen</w>
agen cies</w>
Ver such</w>
S E
Kop f</w>
Di en
Arbei ter</w>
müs ste</w>
mo ved</w>
mehr eren</w>
lar ge-
kun ft</w>
jähr liche</w>
ent liche</w>
emp f
econom y’s</w>
dramati c</w>
divi ded</w>
capit al,</w>
Völk er
S il
Nord kore
Frei handels
Finanz system</w>
Chanc ellor</w>
zu tage</w>
ver lang
ut ed</w>
poten ti
läs si
li st</w>
le mm
ff er
fe el
contribut ed</w>
b as</w>
Zahl en</w>
Sch lag
Bo tschaf
wissenschaft liche</w>
th ro
t le</w>
sk i</w>
rat e,</w>
particip ation</w>
leg ung</w>
krä ften</w>
itä t,</w>
human itarian</w>
ehr gei
dan ach</w>
ch i
Ur sach
Politik ern</w>
Mushar ra
Gro w
G eri
wen igen</w>
re commen
ra c
legisl ation</w>
ir re
i a
epi dem
entwickl ung</w>
cle an</w>
Städ ten</w>
Qu elle</w>
John son</w>
Green sp
Ge werk
C a
C I
- ,</w>
zukünf tigen</w>
ur es.</w>
produc tiv
potenzi ell</w>
om en</w>
man chen</w>
konfron tiert</w>
hoff en,</w>
gewähl t</w>
comp la
beli eb
be waff
Li ef
Ko st
Doll ar
Aus nahme</w>
ü ll
vir tu
ver d
sector .</w>
press ing</w>
lang sam</w>
gemach t.</w>
consu mer
che ap
abilit y.</w>
Zu ge</w>
Tren ds</w>
Paci fic</w>
L it
Finanzier ungs
D re
Britain ’s</w>
Anerkenn ung</w>
voll er</w>
ver lag
tr on
ris kan
resol ution</w>
regi mes</w>
push ing</w>
out com
en ).</w>
Zw eck</w>
Welth andel
Schul en</w>
Pol and</w>
Nachrich ten
Inter ne
Gü ter</w>
Cha os</w>
up .</w>
m ale</w>
letz ter</w>
k ti
empha si
declin ing</w>
clas si
Wes entlichen</w>
S ter
Beschränk ungen</w>
Anti -
A ff
9 0</w>
Är z
sph äre</w>
s li
mean ing
is tic</w>
gegenwär tig</w>
conflic ts</w>
aus gesetzt</w>
ab ly,</w>
Mitarbei ter</w>
Haushal t</w>
For men</w>
Erspar nisse</w>
su stain</w>
ri eben</w>
muslim ischen</w>
manu el</w>
mach t,</w>
form ulier
cust om
ah ,</w>
ab in
Turke y,</w>
T it
Re g
G or
E ar
Camer on</w>
äh e</w>
woh n
verwen det</w>
un like</w>
tradition elle</w>
subsi di
s emi
produc ing</w>
kommun istischen</w>
genom men,</w>
ell ,</w>
ear n
cent uri
aus schließlich</w>
Ukrain e’s</w>
Kon zern
Ira k
Eli ten</w>
E le
3 0
zentr alen</w>
we den</w>
trans fer</w>
s ure</w>
percei ved</w>
lig keit</w>
exc ess</w>
enor m</w>
den ke</w>
cap able</w>
arm y</w>
Un sere</w>
S co
Frankreich ,</w>
w as,</w>
verantwor t
them ati
st ad
si mul
sch utz</w>
reven ue</w>
ne x
ma cht
led ged</w>
forc ing</w>
f at
em en</w>
de x</w>
cri p
W TO</w>
Pro -
K ub
Beobach ter</w>
9 0%</w>
zu letzt</w>
world wi
ver zeich
tre at</w>
thi op
sp unk
sec ular</w>
schi cht</w>
rhetor ic</w>
nachhal tigen</w>
h ,</w>
europä ischer</w>
con st
Ver fahren</w>
S ci
Großbritanni ens</w>
For tunately,</w>
Aus einander
An k
2 7</w>
unmittel bar</w>
un vermei
so fern</w>
re ak
es se</w>
cross -
ch ief</w>
Erdoğ an</w>
A K
vo ic
un ity</w>
th -
su mm
sig ns</w>
sch rit
recht fer
proble m,</w>
kü mm
es .”</w>
el t</w>
call ing</w>
be for
b ase</w>
Sol daten</w>
S ig
S har
Per son</w>
Gerech tigkeit</w>
Gefahr en</w>
Diplomati e</w>
w asser
veh ic
st öß
schüt ter
ne ben</w>
jähri ge</w>
histor y.</w>
gegenwär tige</w>
for tun
außer gewöhn
arbei ten.</w>
amp i
Treib haus
Schu le</w>
P läne</w>
On ce</w>
J e</w>
Greec e’s</w>
y )</w>
tic ally</w>
shar ing</w>
seri es</w>
resist ance</w>
region ,</w>
pursu ing</w>
ologi schen</w>
hin gegen</w>
entwickel n.</w>
curren cies</w>
car ried</w>
ar me</w>
Stro m
Schwellen ländern</w>
K un
Hum an</w>
Egyp ti
A ch
3 5</w>
1 1.</w>
te -
suppor t.</w>
strategi es</w>
rich tig</w>
rei n</w>
n one</w>
multi -
bo ten</w>
besteh ende</w>
Mos co
G est
En erg
te am</w>
ide ological</w>
geo graph
g old</w>
er ende</w>
eng agi
embra ce</w>
W andel
W H
Tra g
Sustain able</w>
Redu zierung</w>
R at</w>
Bo li
Bei j
B las
' t</w>
stri c
mo b
län dlichen</w>
fl äch
exp anding</w>
ac tivity</w>
Kor rup
B O
ten “</w>
sol di
row n</w>
komm t.</w>
ismus ,</w>
forder t</w>
disp lac
commit ments</w>
capit alism</w>
be zü
al ”</w>
Soll te</w>
Bo sni
B ash
suff ered</w>
ser ved</w>
pri vi
ph en
or s.</w>
mm et
il legal</w>
go sla
genu ine</w>
ell es</w>
ech ten</w>
eas ing</w>
diseas es</w>
O r</w>
Jahr en.</w>
Ex peri
201 5,</w>
te “</w>
st e.</w>
ro ut
neh in</w>
k einer</w>
hig her
h andel</w>
erklär t</w>
democra cies</w>
arab ische</w>
T un
Schl uss
Fähig keit,</w>
Doll ar.</w>
Arbeits markt</w>
zahl ungen</w>
ung leich
schwer en</w>
repor ted</w>
pre me</w>
mach t.</w>
li eb
heal th,</w>
gain ing</w>
entsprech end</w>
Su che</w>
S D
Rei cht
O s</w>
Man che</w>
Leb en
voll en</w>
schlä gen</w>
per pet
is ti
in sist
famili es</w>
ed ge</w>
defaul t</w>
arbei tet</w>
ac compli
W al
Still ,</w>
M i
Kri tiker</w>
Gef ol
Cy ber
B is
ver langsam
und en,</w>
unabhängi ge</w>
st am
pri ority</w>
ologi sche</w>
o s,</w>
ho st</w>
gesag t,</w>
fre u
end or
billi on
Vereinbar ung</w>
M I
Artik el</w>
Allgem einen</w>
Öl preise</w>
zweifel los</w>
wirk sam
urg ent</w>
sel ten</w>
of -
lin ked</w>
law .</w>
in e.</w>
fin det</w>
fal sch</w>
extre mis
et ten</w>
es -
er em</w>
circum st
bru t
assu me</w>
Musli me</w>
Goog le</w>
ß en,</w>
wa it</w>
u g
suppor ters</w>
punk te</w>
oh nehin</w>
i or
high ligh
hau shal
gän gi
el ess</w>
civili an</w>
bilit y.</w>
b on
b at
anhalten de</w>
ang ri
Wirtschafts politik</w>
Res ear
Ren minbi</w>
Reag an</w>
R unde</w>
N ar
Keyn es</w>
wei sen,</w>
star ters,</w>
spe ak</w>
sol ange</w>
proc ess,</w>
past ,</w>
p ing</w>
nah me,</w>
m ass
kl ag
infl ation,</w>
gef angen</w>
extre m</w>
bli ck
bezeich net</w>
bedeut ende</w>
adjust ment</w>
Wei ter
The orie</w>
Qu alität</w>
K rei
Ho wever,</w>
zi em
th is.</w>
stoff en</w>
m ü
large- scale</w>
fol genden</w>
deb t-
Plat t
P hän
„ die</w>
wor den.</w>
te d
protec ting</w>
problem s,</w>
le ben.</w>
kul tu
journali sts</w>
ist s,</w>
haf ten</w>
gewährleist en,</w>
geh ens
fig ure</w>
f ähig
dis h</w>
chan ge
b un
ab hän
Rhetori k</w>
Je wish</w>
Interes sen
Afri kas</w>
Überwach ung</w>
verschul dung</w>
sozi aler</w>
ri ert</w>
r ying</w>
kün st
incen tive</w>
gen eh
führ t,</w>
dro p</w>
analy sis</w>
again .</w>
Vereinig te</w>
Ver wendung</w>
Bo den</w>
Arbeitsplätz en</w>
vor berei
sti m
st ol
sp on
sovereign ty</w>
repe at
re bel
push ed</w>
priv ate-
politic s,</w>
kon f
id a</w>
i a,</w>
cost s.</w>
au ff
Un til</w>
Plan eten</w>
N on
Lo gi
Janu ary</w>
G 20</w>
“ -
vor stell
unser es</w>
st ürz
schlech ter</w>
ro ad</w>
resol ve</w>
rec or
organis ation</w>
mach te</w>
m ir
ing ly,</w>
ge ts</w>
effek tiv</w>
concern ed</w>
Mitglied staaten</w>
K örper
Islam ist</w>
Fäl le</w>
Doll ar,</w>
A T
ver handl
tion sk
spiel en.</w>
si vely</w>
setz te</w>
reform .</w>
politi k.</w>
leist ungen</w>
krieg s
industri e</w>
government al</w>
gering er</w>
gen z</w>
ge halten</w>
fis kali
compani es,</w>
cas h</w>
al arm
Op posi
Leist ung</w>
Ch ira
An spruch</w>
sch öpf
reti re
pover ty,</w>
oper ations</w>
a war
Spit ze</w>
Kop f-
Im porte</w>
Euro -
ökonom ischen</w>
wirk sam</w>
well ,</w>
vi g
unser em</w>
t dem</w>
stell er</w>
ro bust</w>
pl ant</w>
ou ver
k tor</w>
grupp e</w>
entschei den,</w>
en lar
ein nahmen</w>
dow n.</w>
di enstleist
di enst
bur den
bu t,</w>
ber n</w>
ab sich
a )</w>
Unter dessen</w>
M y</w>
L eg
I hr</w>
Grün dung</w>
Faceb ook</w>
Ent sch
Bed enken</w>
Auf sichts
Arabi a</w>
Anpass ung</w>
Analy se</w>
ä gyp
wor ds</w>
vor hand
twent y-
ta il</w>
t b
si gh
schie den</w>
pati ents</w>
op posed</w>
offen bar</w>
nee ded.</w>
m icro
gewis se</w>
comple tel
at en.</w>
accep ted</w>
T ak
St ability</w>
Put in,</w>
Medi en
A ble
wer de</w>
us s,</w>
re place</w>
lös en,</w>
lich sten</w>
er scheint</w>
eg u
ch -
bis lang</w>
accep t
Dialo g</w>
( der</w>
üh m
ver teil
tion :</w>
stand s
sowje tischen</w>
sor t</w>
sol ar</w>
sc al
risk .</w>
le d,</w>
histor ic</w>
f ers</w>
dist or
con ference</w>
besteh en,</w>
ac y.</w>
Währungs union</w>
Wh ite</w>
Verhandl ungs
R on
Pro t
PRI N
Ni x
Bet ri
20 50</w>
196 0
y a</w>
wir ,</w>
ung sin
u ra
st ech
show ed</w>
propos als</w>
other s,</w>
mo tivi
is ed</w>
höch sten</w>
hop es</w>
ambi tious</w>
Sor ge</w>
Pra xis</w>
Noten banken</w>
HI V</w>
Ein heit</w>
” ,</w>
zi ell</w>
threat ening</w>
thodo x
shap e</w>
plann ing</w>
phen omen
persön lichen</w>
mus ste</w>
min ority</w>
konzentrier en,</w>
ger s</w>
fac to</w>
effek tive</w>
com mon
ck ing</w>
br ü
be fürwor
batt le</w>
ali ties</w>
Si cht
R est
Kom ment
Greec e,</w>
Em manuel</w>
Dra gh
C S
Berei tschaft</w>
Argum ente</w>
zeu ge</w>
verb undenen</w>
t ou
sa cht</w>
ri c</w>
re lu
notwen digen</w>
n er,</w>
mechan ism</w>
level ,</w>
israeli sche</w>
ges unk
fin dung</w>
contro ls</w>
car e,</w>
afri kanische</w>
Ver besser
Sicherheits rat</w>
Mensch heit</w>
L ang
Indi vidu
Des halb</w>
Christi an</w>
An leih
stärk en.</w>
mob ile</w>
infrastruc ture,</w>
gan is
embra c
bor ders</w>
bene fi
Will en</w>
Re ferendum</w>
Ko ali
In fek
Geri chtsh
Famili en
Ber lin</w>
Al geri
3 -
199 8</w>
ög lich</w>
währ ung</w>
w ro
unter nom
sy rischen</w>
nor mali
ni schen</w>
in ation</w>
ex t
durchschnit tlich</w>
do .</w>
clo sely</w>
beein träch
aus gerich
at z</w>
Moder ni
L eu
G han
200 1,</w>
änder n,</w>
z b
wiederhol t</w>
verur sacht</w>
verstärk t</w>
verfol gt</w>
ver häl
ver fahren</w>
uni que</w>
schri ften</w>
regul ations</w>
proble me</w>
order .</w>
op h
economic ally</w>
d ings</w>
com pe
be kommen,</w>
all mäh
Zent rum</w>
PRIN CE
übri gen</w>
ver sion</w>
tor s.</w>
ro t
pres ence</w>
lieg t.</w>
dru gs</w>
co al</w>
ch ers</w>
bank ,</w>
Saudi-Arabi en</w>
D -
Cor por
2 4</w>
$ 1
y s,</w>
will .</w>
streng th</w>
m ärk
kor rup
inclu ded</w>
ger -
ge eig
f est</w>
elec tion.</w>
educ ational</w>
di men
aus drück
an stre
S T
Pro vin
Ital y’s</w>
um fang
ul ation</w>
slow down</w>
schw ache</w>
reg ardless</w>
lieg t,</w>
j ü
identi ty</w>
hel fen.</w>
en “.</w>
dep loy
com pri
cir c
ber .</w>
Ukra ini
Op tim
Medikament e</w>
Liby en</w>
Kol legen</w>
Kohl enstoff
Inter ventionen</w>
Fern seh
Est abli
Energi es
C P
Bestimm ungen</w>
Ber uf
Aus bruch</w>
zwangs läufig</w>
zi vil
tra ge
nor thern</w>
identi fy</w>
förder n,</w>
fes t,</w>
eth eless,</w>
emerg ing-
con dem
an ten
al lows</w>
Tem perat
Metho den</w>
Iran .</w>
F D
w are</w>
ver lan
son ,</w>
relu ct
pol ari
past .</w>
ou d</w>
mechanis ms</w>
läs st,</w>
lie genden</w>
kurzfristi gen</w>
histor ische</w>
gesag t</w>
gem äß</w>
ex it</w>
energ y,</w>
anhalten den</w>
an e</w>
addi tion</w>
Vor schläge</w>
Sek toren</w>
My an
Handel n</w>
Fran zo
Erweiter ung</w>
Ch ur
äu fe</w>
v est
schütz en</w>
schwier iger</w>
s ac
regar ded</w>
li gung</w>
dien en.</w>
con tex
bilit ät</w>
Wechselkur s</w>
Schwer punkt</w>
Präsident en
Oc tober</w>
Extre m
Asi a.</w>
201 1,</w>
( as</w>
treff en,</w>
su m</w>
societ y,</w>
propor tion
organiz ation</w>
n ess,</w>
k ohl
h ing</w>
gef örder
geb ung</w>
fi el</w>
fall ,</w>
eben e</w>
direk te</w>
S ein</w>
S DG
P ubli
Handel s</w>
H igh
G ericht</w>
Di ffer
Def ense</w>
Bedroh ungen</w>
Aut om
ver doppel
unter such
unru hig
st ers</w>
n ess.</w>
lo om
laun ch</w>
kurzfristi ge</w>
invest ing</w>
erhöh en,</w>
dynam ic</w>
demonstrat ed</w>
Lehr en</w>
Ex ist
Den n</w>
Dan n</w>
trä gt</w>
the ore
reform s.</w>
posi tions</w>
mean ing</w>
ine te
i ere</w>
erheb lichen</w>
di enen</w>
besch rei
be gr
bank s.</w>
ac ting</w>
Th re
Maß nahmen,</w>
L ek
Hinter grund</w>
Grow th</w>
Fo und
Ass ad
wh o
us eful</w>
untergra ben</w>
su rely</w>
sek tors</w>
ro n</w>
remark able</w>
reform s,</w>
partn er</w>
p akist
men tion</w>
la y</w>
gesellschaft lichen</w>
g ingen</w>
ein fluss
conclu ded</w>
agenda .</w>
Th er
Stand ards</w>
N ation</w>
Konf ron
Kingdom ,</w>
He zb
H isb
Befürwor ter</w>
“ The</w>
wom en’s</w>
wi tn
uni si
the or
müs sten</w>
movem ents</w>
ko v
ir anische</w>
health y</w>
f ro
be t</w>
V o
T unisi
Mig ranten</w>
Kommun ismus</w>
zug unsten</w>
reform ,</w>
re alize</w>
p r
li e</w>
konn te.</w>
jen igen</w>
ic .</w>
hin zu
gri ff</w>
erwar tet</w>
erklär t,</w>
en “,</w>
cri mes</w>
Transpar enz</w>
Sp an
O b</w>
F OR
wur f</w>
wahr e</w>
verur teil
th ing,</w>
ten ed</w>
sier t.</w>
rich ten</w>
pro sec
prev enting</w>
pre viously</w>
nach frage</w>
lin ks</w>
le f
ish ing</w>
introduc ed</w>
heb ung</w>
heav y</w>
gi ves</w>
confi den
arbei ts
Ron ald</w>
L on
Konzep t</w>
Je an-
Fed ’s</w>
E bol
Copen hagen</w>
Ange bot</w>
1 5%</w>
yiel d</w>
week s</w>
wach sen</w>
occur red</w>
ko ordin
implement ed</w>
gem äßig
does n’t</w>
deter ior
de preci
comp an
b zw
b it</w>
auf stre
ak u
administration ’s</w>
T wit
Sy mp
R ou
R oo
Chin es
Ar mut
zi cht
u re.</w>
technolog y,</w>
ser war
schaf ten,</w>
rit ori
primar ily</w>
morali sche</w>
lieg en,</w>
j etz
immedi ately</w>
geb ie
ck er</w>
bes i
Wür de</w>
Invest ment</w>
Defiz it</w>
4 -
wen den</w>
under stood</w>
tto m</w>
st rit
progno sti
man aging</w>
lever age</w>
integ rated</w>
ich te</w>
geh ol
fas hi
bzw .</w>
attemp ts</w>
ad d</w>
P ak
Ne ther
Febru ar</w>
A sy
A M
1 -
übersch uss</w>
är er</w>
zei ten</w>
wa ve</w>
tre ated</w>
tra ff
setz t.</w>
setz t,</w>
sch äd
recogni tion</w>
pri ori
o d,</w>
n ord
komp lizier
imp ly</w>
gebrach t.</w>
ge zogen</w>
develop ments</w>
besteh t,</w>
arch it
Steu er</w>
Pro- Kopf-
An wendung</w>
ver lassen</w>
sharp ly</w>
ro bu
mo dest</w>
ma ,</w>
institution elle</w>
hei ten,</w>
gre w</w>
gewinn en.</w>
geführ ten</w>
fristi g</w>
dow n,</w>
cyc le</w>
competi tiveness</w>
absolu te</w>
Struktur reformen</w>
Japan .</w>
Finanz kri
Besu ch</w>
B ör
threat ened</w>
statt dessen</w>
sag te</w>
righ ts.</w>
retur ns</w>
exac tly</w>
ern st</w>
emer gence</w>
beruh t</w>
ac t.</w>
PRINCE TON</w>
Kri ege</w>
Jord ani
Gemein schaften</w>
Establi sh
Energ y</w>
w .</w>
tel evi
schwierig ,</w>
produc t</w>
opposi te</w>
lauf en</w>
geschi eh
ernsthaf te</w>
chan n
ch er
canc er</w>
Zei chen</w>
Peri ph
Au gen
A gre
vor herrsch
t um</w>
resourc es,</w>
pl u
ge änder
g uter</w>
erfolg reiche</w>
entscheiden den</w>
domin ant</w>
crimin al</w>
a gen</w>
Net to
Mark tes</w>
Industriel änder</w>
I l
Bel gi
200 7,</w>
some one</w>
sel n</w>
s l
pro pag
potenzi ellen</w>
pass ed</w>
mi x
lag en,</w>
kore anischen</w>
fem ale</w>
fac ili
ermöglich t</w>
discus sion</w>
Untersuch ung</w>
Rich ard</w>
Rech en
R el
N ähe</w>
Konsequ enzen</w>
H ai
Afric a.</w>
versch lim
tri eb
ter m.</w>
tech no
sä kul
system ic</w>
st rate</w>
pro hi
exchan ge-
deca de.</w>
comp lex
bil den</w>
Bes on
B lock
Argentin a</w>
Än g
ze i</w>
w under
unver zicht
repeat edly</w>
regul ators</w>
reason able</w>
pl ying</w>
n inete
mod ell</w>
höch st</w>
ex posed</w>
ent al</w>
connec ted</w>
conc ep
bo ttom</w>
b es</w>
ad a,</w>
ac ted</w>
Unter drück
T emp
J ourn
Gebie ten</w>
F isch
zusätz lichen</w>
um gesetzt</w>
spra ch</w>
sch e,</w>
pover ty.</w>
objec tive</w>
mark ed</w>
l ern</w>
k i
im migrants</w>
her stellung</w>
frag ile</w>
fiel d</w>
er a
cri tici
confron t</w>
bür ger
ar d,</w>
ac zy
ac ts</w>
Staats schulden</w>
Proble ms</w>
K aczy
Gläub iger</w>
F ünf
Eig enk
Col ombi
Betei ligung</w>
BIP- Wachstum</w>
wom öglich</w>
sprech en,</w>
pos s
n enn
il om
bet ru
auf recht</w>
US- Regierung</w>
Steuer senkungen</w>
Spe kul
Schätz ungen</w>
S am
M el
Kur z</w>
Kreditver gabe</w>
Ein schränk
Che f</w>
vers pro
up ,</w>
türk ischen</w>
tic le</w>
ter n.</w>
t at</w>
stu dies</w>
sen d</w>
s w
pre dec
predec ess
on ing</w>
mit ted</w>
m ed</w>
l es,</w>
in dependen
im balances</w>
encoura ging</w>
d se
col oni
c atastroph
au ßen</w>
ad ul
Wei se,</w>
Thir d,</w>
T ab
Rück zug</w>
Nieder gang</w>
Bed ar
Außen minister</w>
2 1</w>
zugr unde</w>
simul tane
prac tical</w>
kurzfristi g</w>
elimin ate</w>
dis cover
be u
Vi ktor</w>
Ta y
Si ed
Nor men</w>
Nach richt</w>
List e</w>
Kur z
Ju ly</w>
Frem d
E pi
Ac t</w>
A -
2 2</w>
schn ei
richt en.</w>
renew able</w>
jus tic
isch -
frü here</w>
forec ast
entscheiden d</w>
dr ing
de liber
conflic t.</w>
bet rei
ac y,</w>
Rak et
N ob
Ju den</w>
For derung</w>
F eu
Be wäl
Aus maß
t ab
s we
organiz ed</w>
kohl enstoff
jo ined</w>
c lass
bilit y,</w>
at mo
app lic
ac tual</w>
W ich
Tür kei
T ä
199 1</w>
$ 1.
Über gang
z e,</w>
wir d
weiß ,</w>
verbesser n,</w>
us ses</w>
tt om
t ask
stän digen</w>
sen se,</w>
sch lagen</w>
repor ts</w>
progres sive</w>
practi ces</w>
nah e</w>
liber ale</w>
inclu sive</w>
har te</w>
h as
f ts
er öff
consist ent</w>
ch ampi
bo d
Stim me</w>
Re public</w>
Asi ens</w>
ten e</w>
sor ganis
sier ungs
religiö se</w>
other wise</w>
now ad
materi al</w>
im migran
gren ze</w>
f res
da y.</w>
b lie
au di
ap ar
adv ant
Stud enten</w>
Jer us
Gesetz es
D ut
Bemüh ungen,</w>
Be yond</w>
7 5</w>
200 8.</w>
to o.</w>
tivi sten</w>
st sein</w>
sion s.</w>
ri erung</w>
regel n</w>
ni veau</w>
ne ar-
jem and</w>
fol low
elsewher e.</w>
eli te</w>
dür ften</w>
diversi ty</w>
credi tors</w>
bes etz
al one.</w>
Vier tel</w>
Jam es</w>
G ast
Erfol ge</w>
Cháve z</w>
C aliforni
Berei t
Asi a’s</w>
4 00</w>
victim s</w>
ut zutage</w>
rech ten</w>
is s
hä us
her beizu
ger ed</w>
fel t</w>
educ ation.</w>
derzei tigen</w>
c ation</w>
brei te</w>
besch ei
and au
Pro test
Leh man</w>
Ab bas</w>
A gain
6 ,
201 3,</w>
verfol gen</w>
ver trag</w>
ver größ
treff en.</w>
technologi schen</w>
sup pos
si n</w>
private- sector</w>
ne .</w>
lin e-
li tät</w>
la ge
gesellschaft liche</w>
de ter</w>
de a
bil d</w>
appar ent</w>
alisier ten</w>
ak s</w>
Wähl er
Ver s
Non etheless,</w>
Lab our</w>
Diskus sionen</w>
Com pu
zuneh men,</w>
wei se,</w>
ukra in
tur n,</w>
spiel t</w>
sati s
p ,</w>
op tions</w>
him .</w>
he f
elec tri
e e</w>
di e,</w>
aus gebil
ar ity</w>
T ony</w>
Solidar ität</w>
Sch ock
Perspek tive</w>
P ek
E -
A ma
201 2,</w>
wei ght</w>
undermin ing</w>
steig en,</w>
sicher lich</w>
righ t.</w>
righ t-wing</w>
har mon
erwar ten,</w>
be gun</w>
Zeital ter</w>
T enden
Szenari o</w>
Ra ther</w>
Pro tektion
K unden</w>
Bewäl tigung</w>
ö der
z in</w>
withdraw al</w>
wei gh
w ,</w>
thre aten</w>
son st</w>
si ven</w>
sh ad
reser ve</w>
ni sche</w>
l a</w>
k s
finanzi erung</w>
el .</w>
contra dic
challen ges.</w>
ch t,</w>
c lin
beein druck
Zu stand</w>
Som ali
H under
H ause</w>
Fuß b
Europe 's</w>
Einw anderer</w>
East .</w>
Committe e</w>
B ah
z ig
ver tief
us ual</w>
tra de.</w>
ti ver
steig t</w>
resour ce</w>
put s</w>
pro found</w>
popul ations</w>
minist erin</w>
gen ü
geb ro
ec ts</w>
cre ates</w>
compani ed</w>
beträ gt</w>
Wieder herstellung</w>
Wettbewerb s
Re k
Nach fra
Mu ch</w>
Kore a’s</w>
I R
Au ff
Akti en</w>
6 .
- led</w>
wei ß</w>
ut y</w>
tt ä
tra gi
t ol
sub jec
risk -
re placed</w>
ra tion.</w>
ra tifi
ne o
n un,</w>
ini tial</w>
infl ation.</w>
economic ,</w>
ech ter</w>
cul ture,</w>
ac tors</w>
Vermö gen</w>
Struk tur</w>
St al
Schwäch e</w>
Liber alisierung</w>
Govern ments</w>
Dev isen
-S ahar
zurück ,</w>
vermei den.</w>
ver leih
sex ual</w>
ra pi
p ass</w>
min d</w>
lo hn
kul turellen</w>
ko ,</w>
hät ten.</w>
gene tic</w>
exchange- rate</w>
erfolg reich
ein hei
ck s</w>
boo sting</w>
bo ts
ac companied</w>
Su preme</w>
St atisti
Sch lim
Prior itäten</w>
De part
Aut onom
recht zu
ni gh
natür lichen</w>
ing u
gesti egen</w>
ev ent</w>
erwar ten</w>
ed :</w>
ber ühm
Un like</w>
Stag nation</w>
Lon don
Jahrzehn ts</w>
Instru mente</w>
D u
Ber at
Aus sicht</w>
themsel ves.</w>
s cope</w>
profi tieren.</w>
plötz lich</w>
mö chte</w>
mut ual</w>
inde ed</w>
form ul
fi f
convinc ed</w>
appear ed</w>
Viel zahl</w>
Ungleichgewich te</w>
Spra che</w>
J ong-
G ouver
Einwander ung</w>
197 0er</w>
w ater
vermei den,</w>
u re,</w>
sta y</w>
spe ech
sion s,</w>
seri ously</w>
potenzi elle</w>
poin t.</w>
mus sten</w>
manufac tur
level .</w>
k an</w>
höher er</w>
hät te,</w>
for est
fail ing</w>
en em
emerging- market</w>
dialo gue</w>
denk en.</w>
conc ept</w>
blo od
be kommen.</w>
app ly</w>
Zivil gesellschaft</w>
W hat
Th en</w>
So ft</w>
Rei chen</w>
Inste ad</w>
Griechen lands</w>
Ar z
mak ers</w>
job s,</w>
human -
ess ed</w>
eri schen</w>
enh ance</w>
durchschnit tliche</w>
disa ster</w>
com for
ch :</w>
be herrsch
ac cur
Wes t.</w>
Par iser</w>
O ut
M ilo
Ko operation</w>
C an</w>
C ,</w>
Bush s</w>
Autor ität</w>
An statt</w>
ver glichen</w>
trei ben.</w>
stat tung</w>
restric tions</w>
orig in
niedri ge</w>
kenn tnis</w>
ho ben</w>
genu g,</w>
ge plan
f low
enk t</w>
el se</w>
eh en,</w>
Reak tionen</w>
H olo
D adurch</w>
wider .</w>
vor anzu
veränder t</w>
ver hän
sü d
succe ed</w>
stad t</w>
st res
or ity.</w>
oph istic
nom inal</w>
läu ft</w>
j ahr</w>
impro vem
im port</w>
her auszu
gemach t,</w>
gef as
forc e.</w>
flexi ble</w>
est ate</w>
am in</w>
accoun ting</w>
P en</w>
Gl ück</w>
Bri ten</w>
Än derung</w>
stag ni
sa ys</w>
re put
nu cle
l er,</w>
fron t</w>
erkenn en.</w>
conduc ted</w>
bra chte</w>
betei lig
Ursach en</w>
M üt
I N
Hei mat
Fak tor</w>
El tern</w>
ECB ’s</w>
Bedürf nisse</w>
Au stri
Über rasch
zahl reiche</w>
täu sch
r .</w>
mit ten</w>
kost spie
inevit ably</w>
griech ische</w>
dig keit,</w>
bal anced</w>
aw are</w>
ac qui
Zerstör ung</w>
T -
Sch war
M ani
Gul f</w>
D ig
1 9</w>
ß en.</w>
wei thin</w>
vor sich
schlim mer</w>
restruc turing</w>
p ic
ow n.</w>
look ed</w>
kein erlei</w>
ignor e</w>
help s</w>
fin ding</w>
er up
compe te</w>
able hn
Su d
Q E</w>
J ed
Israel .</w>
F a
zähl en</w>
z er</w>
wur zel
wei ten</w>
verli eren</w>
tier enden</w>
th at.</w>
suppos edly</w>
s ophistic
perf ec
out comes</w>
gew o
fra gen,</w>
expan ded</w>
equi p
eng aged</w>
eli tes</w>
e ase</w>
bu ying</w>
ail s</w>
Wes t,</w>
Po wer
Nor den</w>
Gebi et</w>
Bush ’s</w>
Bil d</w>
üs sen</w>
ziem lich</w>
z ation,</w>
th ri
t ).</w>
suggest ed</w>
su chen</w>
neighbor s</w>
nehm ern</w>
imag ine</w>
ent schieden</w>
educ ated</w>
deb at
bru tal</w>
Tim es</w>
Roo se
Religi on</w>
Liquidi tät</w>
Iraq .</w>
H u</w>
Gefol ge</w>
Cent er</w>
Bereit stellung</w>
voll kommen</w>
tur mo
so ft
sa id,</w>
regi me
lea ves</w>
gleich ermaßen</w>
geh ende</w>
g ing,</w>
enab led</w>
east ern</w>
Terror an
Ta gen</w>
Rett ungs
P )</w>
Hö he
Defl ation</w>
Char ak
Bei tritt</w>
üh ne</w>
y ers</w>
wär en.</w>
werden ?</w>
ung :</w>
ul se</w>
t sp
ru led</w>
ri val
leg acy</w>
l es.</w>
könn e</w>
indi sche</w>
herr schaft</w>
estim ate</w>
dar um,</w>
completel y</w>
at tri
Roose vel
O P
Nob el
M ag
Gar anti
Eli te</w>
Con serv
4 0
Ä u
t an</w>
saf egu
s ligh
ri chten,</w>
re lief</w>
public ly</w>
nuklear en</w>
konzent rieren</w>
job s.</w>
iz ing</w>
issu es,</w>
handel n</w>
extre men</w>
ent schied
corpor ations</w>
ben utz
aff ord
F ut
Europ a.</w>
stärk eren</w>
stand .</w>
shr in
resourc es.</w>
proc e
pre mi
popul ation.</w>
mitg lie
leist en.</w>
coun ter</w>
ch air
ben de</w>
ak er</w>
Wahlkamp f</w>
Mar ine</w>
Fund ament
F ru
Der artige</w>
D ä
Com p
Berei che</w>
Afri can
v ed,</w>
uni on,</w>
strong ly</w>
st off</w>
spend ing,</w>
school s</w>
profession al</w>
produc ers</w>
go t</w>
fe der
con text</w>
blei bt,</w>
US S
Nor thern</w>
Nieder lan
Milli on</w>
HIV /
Ex pan
Coun tries</w>
Bor is</w>
" ,</w>
w oul
unwahrschein lich,</w>
trans fer
ter ien</w>
stan ces</w>
sofor t</w>
sen ken</w>
sch ru
regar ding</w>
offen kun
multin ation
jüng st</w>
j ün
geb i
func tioning</w>
ever .</w>
enth usi
c ast
ar is
Zus timmung</w>
US- Wirtschaft</w>
Ti ef
Nachrich ten</w>
Franzo sen</w>
For um</w>
Chin a's</w>
C ity</w>
Be wus
weak er</w>
vi able</w>
ul ar
spend ing.</w>
ref used</w>
n eig
leist en,</w>
katastrop hal
in stability</w>
i cht</w>
hunder t</w>
erklär en,</w>
constitu tion</w>
billi on.</w>
an hand</w>
ag o
Ver halten
St ör
Al ter</w>
zent en</w>
th eless,</w>
hal t
groß es</w>
ges timm
ger ingen</w>
gef unden</w>
fün f
frü h
fossi len</w>
be unruhig
at em
alitä ten</w>
W TO
Treibhaus gas
Res pek
Re pres
Poli cy</w>
N ever
Mittl eren</w>
M et
Is ol
Char les</w>
с т
ung sum
to w
sol ven
ra n</w>
prac tice</w>
pat tern</w>
im pres
ex tend</w>
ex pressed</w>
enk o</w>
cour t</w>
con vic
char ge</w>
blo ck</w>
ar res
ad ver
Streit kräfte</w>
Progno sen</w>
Ni em
Logi k</w>
Job s</w>
C ur
Au th
Able hnung</w>
200 0,</w>
-Sahar an</w>
- -</w>
won ’t</w>
wech sel</w>
vo tes</w>
versch lech
verring ern,</w>
ou b
or ed</w>
le m
lan ce</w>
j ord
in es,</w>
gesch ütz
financ ed</w>
f ei
dramati cally</w>
da y’s</w>
cost ly</w>
citiz ens.</w>
car e
Tech ni
Nicol as</w>
Mach th
H ol
Gen au</w>
Entscheid ung,</w>
Bre tt
Be für
( E
unabhängi gen</w>
transform ation</w>
st ran
schaff ung</w>
n äh
kost en
konf lik
ger inge</w>
ge kommen</w>
fir st-
ernsthaf t</w>
con tain</w>
ant s,</w>
a dig
W he
S äu
Nor mali
Mittel punkt</w>
Kom mission
K er
Holo cau
H ier</w>
Er werb
Bru tto
Am bi
än den</w>
ri st
prof it</w>
natür liche</w>
intel lektu
ic s,</w>
gradu ally</w>
ex pl
erst aun
environ ment,</w>
eng agement</w>
em power
dem and,</w>
con cre
Resear ch</w>
M er
Groß e</w>
F el
Bestand teil</w>
Berluscon i</w>
B on
Austrit t</w>
Ö ff
zurück kehr
ver sicherung</w>
v on
sin d
res c
rar ely</w>
pur pose</w>
m än
level s.</w>
em m
best ra
appoin t
any ah
Spain ,</w>
Net anyah
Koso vo
Großbritanni en,</w>
Flüchtlin gen</w>
Americ a.</w>
weit reich
sto ß</w>
sh oul
p h</w>
oper ating</w>
one- third</w>
offen e</w>
kl einer</w>
jed o
institution ellen</w>
gebrach t,</w>
ff en,</w>
endi ox
em bar
di verse</w>
contro l.</w>
c oura
brauch en,</w>
as pi
Z ur
Wirtschaf t,</w>
Whe ther</w>
Ma sch
Leb ens</w>
L ob
Bünd nis</w>
über nehmen.</w>
zy kli
unter nehmen,</w>
susp ici
st ur
schlim msten</w>
res ig
regi me.</w>
off ering</w>
norm alen</w>
neu er
kauf en</w>
gesch ätz
geb li
entsprech enden</w>
einf ache</w>
de aling</w>
critic ism</w>
attrac t</w>
Y es,</w>
Verwal tung</w>
Schlüs sel</w>
K auf
Islam ischen</w>
H ig
G et
Ab schwung</w>
st ens</w>
scenari o</w>
sc and
pro ven</w>
on s,</w>
läng st</w>
le m</w>
kon ferenz</w>
handel n,</w>
gere cht</w>
desig n</w>
auf rechtzu
al leg
Off en
Never theless,</w>
Mat eri
Kra ft
H en
Brenn stoffe</w>
Ar men
. ,</w>
Über leben</w>
vin ce</w>
unter g
technologi sche</w>
state- owned</w>
show ing</w>
seem ingly</w>
se arch</w>
rejec ted</w>
regu lier
re ferend
r ust</w>
ori en</w>
neg lec
ne l</w>
li ert</w>
komp et
gewinn en,</w>
foc using</w>
financi al-
entsprech ende</w>
can ’t</w>
bankrup t
Z oll
Wei l</w>
Er krank
20 ,</w>
Über sch
you th</w>
wär ts
wel come</w>
t ack
su cht</w>
ro se</w>
regul ator
p il
obser vers</w>
nation alism</w>
li schen</w>
le ge</w>
le :</w>
it able</w>
il ’s</w>
heu tige</w>
er re
dy sf
demokrati scher</w>
demand ing</w>
be zo
be glei
Sol che</w>
Kohl endiox
Ide ologie</w>
über wäl
ä cht
zusätz lich</w>
z en
ver kün
tion en.</w>
t ough</w>
recht lichen</w>
mehr ,</w>
mat h</w>
he gemon
genutz t</w>
erw ähn
digit ale</w>
der eg
de pres
consu l
and ’s</w>
an xi
a el</w>
Staats verschuldung</w>
Sek tors</w>
Ret tung</w>
G lücklicherweise</w>
Bl ut
B ul
ter s
prot est
lat ein
kon solidi
in hab
hoch rangi
her bei
fäh ig</w>
fal sche</w>
ex ist</w>
er möglichen</w>
en emi
corrup t</w>
aul t</w>
ativ es,</w>
W ur
Ur sache</w>
Tru e,</w>
Politi cal</w>
M il
Hung er</w>
F ar
wor den,</w>
we ek</w>
subsequ ent</w>
sorg fäl
schle chten</w>
schein bar</w>
re d
port foli
off set</w>
negoti ating</w>
mit t
lemm a</w>
issu es.</w>
ig sten</w>
funktionier en</w>
fam il
essi mis
ern den</w>
bar ely</w>
Reser ven</w>
I F
Ein richtungen</w>
De al</w>
Bes org
199 7</w>
- rate</w>
wi tz
un weiger
ten ?</w>
spezi fi
schütz en,</w>
renew ed</w>
month s,</w>
los er</w>
lin k</w>
import ant
gen des</w>
direc tion</w>
bub ble</w>
app lied</w>
Wes teurop
Verbesser ungen</w>
Sun ni</w>
Ph ilosop
P rü
M au
Land es,</w>
HA V
Dienstleist ungs
B ag
An nahme</w>
Ab wertung</w>
wom an</w>
trit ts
tra ck</w>
tr ü
propor tion</w>
min der
lon ger-
lig arch
kon tin
jud g
hom e.</w>
finanzi eller</w>
fa ith</w>
f rau
enth al
beg on
Rech ten</w>
Mis strau
At mo
zwing en,</w>
wor se.</w>
ver lu
untergra ben.</w>
st s.</w>
sich .</w>
ro ck
new ly</w>
n ur
it ation</w>
inv asion</w>
head s</w>
gewor den,</w>
fehl t</w>
diplomati schen</w>
diplom acy</w>
d ung.</w>
claim ed</w>
choic es</w>
bel eg
X ia
Ter ritori
Sü den</w>
Kon tak
K apazitäten</w>
IMF ’s</w>
Bedeut ung.</w>
193 0er</w>
( including</w>
wei sen.</w>
weak en</w>
we a
vo ting</w>
typ es</w>
sich eren</w>
selb st.</w>
sei tens</w>
p ak
on e
o unc
nar row</w>
mon o
mand ate</w>
l an</w>
kon zip
ist :</w>
he aded</w>
gan gen</w>
f unded</w>
escap e</w>
er scheinen</w>
environ ment
em bly</w>
ec ken</w>
dis mis
chron ic</w>
ber g</w>
believ es</w>
Wider spruch</w>
Mechan is
Me dic
König reich
Georgi en</w>
Fre e</w>
Best reb
B en</w>
zusammen zu
teil s</w>
res pek
releas ed</w>
preser ve</w>
ori ented</w>
o is</w>
multilater alen</w>
k new</w>
it y-
for schung</w>
f ließ
ell ed</w>
demon stra
de urop
da ily</w>
Washingt on,</w>
Tradi tion</w>
Re cht
M ur
Hoff nung,</w>
Entwicklung shilfe</w>
E duc
Da vo
wen den,</w>
wel chen</w>
we gs</w>
tur en</w>
teu r</w>
soci al-
skill ed</w>
sett lement</w>
schätz ung</w>
popul ation,</w>
kein es
gesp iel
gener ated</w>
gegan gen</w>
es sions</w>
concern ing</w>
con sci
colle agu
bo und
bo dies</w>
a ys</w>
Vor gehens
Verantwor t
Politik er,</w>
Fran ç
Dut ch</w>
201 4,</w>
verhinder t</w>
unter drück
tra -
ther more,</w>
te uren</w>
t ly,</w>
stärk en</w>
realisti c</w>
gezw ungen,</w>
finanzi ert</w>
ex tra</w>
es ischen</w>
entwickel t.</w>
entwickel t,</w>
emer gency</w>
comp u
aus einander
Wel le</w>
W ar,</w>
V iz
Todes fälle</w>
Sin n</w>
Ri v
Min dest
Haushaltsdefiz ite</w>
Gre en</w>
Flüchtling s
Finanz sektor</w>
E lec
D om
Bedeut ung,</w>
Angelegen heiten</w>
überzeu gen,</w>
über wach
way s,</w>
v an
te )</w>
schi i
re plac
ph ase</w>
mal aria</w>
kultu relle</w>
ge zeigt</w>
form ation</w>
execu tive</w>
er fahr
digit alen</w>
com promise</w>
com mit</w>
benef its.</w>
ang ha
ak tiv
Ver teilung</w>
Pro pag
Poli sh</w>
On line-
Ministerpräsid enten</w>
Me eres
K am
Je der</w>
Harv ard</w>
Epi dem
Be weis</w>
Armut s
vorher seh
vertre ter</w>
verring ert</w>
sich ere</w>
sch were</w>
pl us</w>
morali schen</w>
le ase</w>
l erin</w>
gewähl ten</w>
gesch äf
funktionier t</w>
das selbe</w>
dam it,</w>
counter -
cost s,</w>
ck er
ci d
b old</w>
attrac tive</w>
am t</w>
Z wei</w>
Sco t
Reser ve
Pres id
G ang</w>
Egyp t’s</w>
Egyp t,</w>
B au</w>
Aus lands
Ab geord
verbesser t</w>
us h
schwer wie
recession .</w>
re fer
pl ed</w>
irgend wann</w>
enc y,</w>
einfach en</w>
do k
co her
bezü glich</w>
beginn en,</w>
b les</w>
b ahn
Z ölle</w>
Stra ßen</w>
Resol ution</w>
Proble m
M ess
Ju gend
Glob alisier
Drit tens</w>
2 3</w>
überrasch t</w>
über nehmen</w>
wi der,</w>
trans fers</w>
liber alization</w>
jen igen,</w>
jedo ch,</w>
for tsetz
ent en,</w>
emis sionen</w>
elec tions,</w>
devast ating</w>
an ci
St ar
Rei ch
Mittel schicht</w>
Mach t,</w>
Fur thermore,</w>
Defiz it
5 ,
vari ety</w>
sor gen.</w>
separ ate</w>
re al-
pro mp
oppon ents</w>
on y
net works</w>
mar ri
li cal</w>
gew and
ger uf
gefähr lich</w>
ge hei
deliver ed</w>
da ,</w>
bei tragen</w>
ausländi scher</w>
ar tifi
approach es</w>
ac com
Untersuch ungen</w>
Trag ö
II ,</w>
wen den.</w>
verfolg en.</w>
v ac
ur teil
tic ,</w>
sud den
regel mäßig</w>
pat tern
nah men.</w>
in ely</w>
implement ing</w>
h i</w>
gesch ä
ga ther
fi k
ff ek
ex emp
durch zu
destro y</w>
asy l
ali g
Som mer</w>
Milo se
Krem lin
K G
Gläub ig
General sek
Frau en,</w>
Chanc e,</w>
Boli vi
y i
ultim ate</w>
trag s
si te</w>
sho ck</w>
resul ted</w>
medi um-
m ed
la sting</w>
g an</w>
fig ures</w>
ent ation</w>
cri tics</w>
bilater alen</w>
ber uf
aus gelö
ali k
Sow ohl</w>
Mittel n</w>
Lu x
Glau ben</w>
Energi ever
An lagen</w>
Altern ativen</w>
über nom
wher e,</w>
wat er,</w>
tn ach
sprü che</w>
spe ed</w>
sm ,</w>
sch ock
sam mel
re ci
pi ec
logi c</w>
li ves.</w>
k ö
interest s,</w>
gra vier
get ö
ful ,</w>
forc e,</w>
con tent</w>
compar is
Wor t</w>
Milliar de</w>
Führ ung
Einkommen s</w>
Ein stellung</w>
Br üs
Ar mu
200 5,</w>
) ;</w>
wirk en</w>
w ake</w>
verfol gen,</w>
tor .</w>
tim es,</w>
territori al</w>
ten )</w>
steu ern</w>
sing ly,</w>
sei te</w>
op ened</w>
nö tigen</w>
mortg age</w>
ini erung</w>
hei z
gel ern
gefähr liche</w>
geb en
fir e</w>
enab ling</w>
deb ts</w>
co ali
bis her
advan ta
Rechtsstaat lichkeit</w>
R ein
Priv ati
Per sön
Obam a,</w>
Mu ster</w>
Minder heiten</w>
Ir land</w>
H om
F lexi
Emission s
Den ken</w>
Ch il
Ch ange</w>
viol ence.</w>
unemploy ment,</w>
twi ce</w>
ti erung</w>
ten ing</w>
t es,</w>
spä ten</w>
sp ac
perf ek
net work</w>
missi le</w>
it ly</w>
def en
betro ffen</w>
appe al</w>
angemessen e</w>
Stur z</w>
R is
R ic
Q E
Poli zei</w>
Jah re,</w>
Inv asion</w>
Handel skri
Effizi enz</w>
Den g</w>
Beispiel e</w>
201 9</w>
2 8</w>
1 3
zahl ung</w>
z wan
we ver</w>
ter t</w>
tenden ziell</w>
surv eil
suppor t,</w>
reli able</w>
o il
kon om</w>
komm uni
j eg
italien ischen</w>
har der</w>
gewal ttä
facilit ate</w>
deut liche</w>
demon strate</w>
br ings</w>
be halten</w>
b ill
Temp o</w>
Spe k
Sh ould</w>
Rom ani
Mari o</w>
M icro
Dis krimin
194 5</w>
und oub
teu erung</w>
st ance</w>
sch war
möglich keiten</w>
inves tieren,</w>
im m
ho urs</w>
handel n.</w>
euroz one,</w>
e wi
bor row</w>
ag es,</w>
ad or</w>
abilit y,</w>
Zwei fel
Präsidentschafts wahlen</w>
Lehr e</w>
K al
HAV EN</w>
Auf nahme</w>
Aspek te</w>
An y</w>
ver stehen</w>
si v
sa ying</w>
risk y</w>
reagi eren</w>
lif e,</w>
kenn zeich
h l
ge :</w>
ent deck
em ent,</w>
cross- border</w>
condi tion</w>
clos ed</w>
ch te,</w>
bo ard</w>
atmo sp
Sen ator</w>
Progra mm
Kaczy ń
Indi k
H ur
D .</w>
B rus
B it
201 6,</w>
zusam men,</w>
un ten</w>
um gekehr
succ ess.</w>
re verse</w>
ra ce</w>
purchas es</w>
posi tiven</w>
negoti ate</w>
ne o-
ma y
le hn
group s,</w>
ge geben,</w>
frag ment
erg än
emer ge</w>
cri me</w>
competi tiven
capit al.</w>
c lu
behaup tet,</w>
Unru hen</w>
Ungar n</w>
Sk ep
In nen
Ca tho
Brus sel
A gr
zi el</w>
verlier en.</w>
ther e.</w>
sti sche</w>
op pose</w>
militäri scher</w>
ko s</w>
justi fy</w>
ing :</w>
gel assen</w>
gel ang</w>
do or</w>
de creas
comb at</w>
betra chten.</w>
and in
ali siert</w>
Steuerzahl er</w>
K anz
Gesch win
G anz
E R
A )</w>
z ar
year -
vorgesch lagen
tra d
t ag
sch ar
multi ple</w>
meaning ful</w>
haushal ts
fi zierung</w>
er schi
drasti sch</w>
destruc tion</w>
demograph ic</w>
che ap</w>
are as.</w>
after math</w>
Re b
Kon zent
K ham
Ge o
Gaz pro
Franç ois</w>
Effek t</w>
E M
Di agno
Befür cht
term s,</w>
stimul ate</w>
sp ann
sch ä
s ah
mon opol
illi ber
hiel t</w>
grund sätz
fer tili
er schwer
ens ei
direk ten</w>
diplomati sche</w>
argum ents</w>
ar ti
approach ,</w>
ap p</w>
an a</w>
ali n</w>
W et
S hin
Hongkon g</w>
Hisb ollah</w>
H ier
wor d</w>
wirk same</w>
ver zweifel
righ t,</w>
projek te</w>
pre fer</w>
our sel
orig inal</w>
op enn
li ger</w>
i at
groß zügi
gespro chen</w>
g lich
eigen es</w>
doc tr
disc oura
decision- making</w>
da ß</w>
consequ ences.</w>
budge ts</w>
besch ri
ation ”</w>
ar sen
ar bit
ad ing</w>
ab sur
Verpflich tung</w>
Su dan
Publi c</w>
Osteurop a</w>
J acqu
G ates</w>
Bro ther
Bank ’s</w>
verschmutz ung</w>
u ,</w>
genom men
führ te.</w>
finan z
f law
el ements</w>
big ger</w>
Tran spor
T y
St amm
Sch wä
Populi sten</w>
Populi smus</w>
P sych
Länder n.</w>
E th
Ch ile</w>
Be kenntnis</w>
A y
6 00</w>
4 5</w>
201 5.</w>
wen det</w>
ver sammlung</w>
ti l
strugg ling</w>
struc tures</w>
s elling</w>
require ments</w>
pro tektion
medizin ische</w>
hervor ,</w>
har r
gen s</w>
gen o
gen ?</w>
f and</w>
exten ded</w>
exc ept</w>
erh äl
er “</w>
engine ering</w>
derar tiges</w>
ci ous</w>
childr en.</w>
blei bt.</w>
bau en</w>
ation ’s</w>
adi ly</w>
accep table</w>
Wer den</w>
Res ul
Mein ungsum
Brasili en,</w>
Bank en,</w>
B a
An nahme,</w>
An lass</w>
üs si
zi elle</w>
ye t,</w>
wom en,</w>
u fen</w>
tack le</w>
se a</w>
pressu res</w>
poin ted</w>
plu rali
mei st</w>
lat ter</w>
interest -rate</w>
entschei den</w>
entfern t</w>
ein geführt</w>
be handelt</w>
anzu kurbel
an en</w>
am i</w>
addi tion,</w>
aband on</w>
Voraus setzung</w>
Viel falt</w>
T rau
S he</w>
Russi a's</w>
K ein</w>
Jo se
De fin
Ber lin
Bedar f</w>
zus tim
wron g.</w>
st op
r yp
progres s.</w>
pro lon
main stream</w>
krati e</w>
kin ds</w>
hoch entwickelten</w>
gest ärk
fest zu
erle bt</w>
concre te</w>
blie b</w>
billi on,</w>
beschränk t</w>
balanc ing</w>
aus ende</w>
ar m</w>
anti cip
addres sed</w>
acc used</w>
Weg ,</w>
Wachstums rate</w>
Teil nahme</w>
S ur
S up
Prozent .</w>
Niem and</w>
Eigent ums
D utz
work ers,</w>
wahr en</w>
vig or
verhandl ungen</w>
ver fass
ver ank
sac ri
s ales</w>
responsi bili
mäß ig
mittl eren</w>
m einem</w>
kon struk
industri ellen</w>
höch ste</w>
gew esen,</w>
gelei tet</w>
g ä
eri sche</w>
erforder lich,</w>
drit ten</w>
dien en,</w>
citiz ens,</w>
begr üß
Wahlkamp f
Ver letz
Struktur en</w>
Kin d</w>
K ern</w>
Höhe punkt</w>
German y.</w>
Gef an
war ning</w>
undoub tedly</w>
stu di
solidar ity</w>
rais es</w>
predic table</w>
pat rio
notwen dige</w>
neu n</w>
n falls</w>
institu tion</w>
ima ge</w>
hosp it
happ y</w>
fra c
fix ed</w>
fam ous</w>
ermöglich en.</w>
einzel ne</w>
durch geführt</w>
countr y's</w>
be ach
b lack</w>
auf en</w>
assum ed</w>
anni vers
Wun sch</w>
Mal ari
Haushaltsdefiz it</w>
Egypti an</w>
As soci
wi sh
universi ties</w>
un s,</w>
stri ke</w>
schwier igen</w>
pi pel
persön liche</w>
li eren</w>
lan ger</w>
itä t.</w>
implement ation</w>
hoh em</w>
hier für</w>
govern ing</w>
getro ffen</w>
gestieg en.</w>
ges prä
frei willi
finanzier en.</w>
exp ense</w>
enthusi as
direc ted</w>
de valu
curren cy,</w>
bewe gung</w>
beteili gt</w>
al ty</w>
academ ic</w>
Z um
Verschul dung</w>
Si eg
S timm
Gebie te</w>
F ok
CO2- Emissionen</w>
Be weise</w>
Ab dul
wh ite</w>
transpar ent</w>
th anks</w>
t y-
possi ble,</w>
perf ect</w>
not ably</w>
m ein</w>
konn ten.</w>
en ),</w>
do ,</w>
commit te
cap ture</w>
agreem ent.</w>
V ari
Sch ü
Mik ro
Gegentei l</w>
Bes ei
A ri
( P
ökonom ische</w>
war ned</w>
ver sicher
st ranten</w>
reli ance</w>
occ a
mehr .</w>
lo ck</w>
la im
h aus</w>
gesetz te</w>
fall .</w>
f ond
ei gh
al t
Y el
W W
Verfü g
Ver öffentlich
Schwä chen</w>
Peop le’s</w>
Nieder lage</w>
Ma o</w>
II .</w>
198 0</w>
yo ung
um so</w>
trä gen</w>
transpar ency</w>
staat lich</w>
pro per</w>
lam ent
in adequate</w>
hör en,</w>
ge zo
employ ment.</w>
ck ed</w>
ativ es.</w>
are as,</w>
ange kündig
Zinss ätz
Wirtschafts krise</w>
Ur spr
Span ish</w>
Pe ace</w>
Kan ada</w>
K im
Finanz märkten</w>
F an
5 .
199 2</w>
zent rali
universi ty</w>
tä r</w>
toge ther.</w>
the ast</w>
st amm
schrit t
populisti schen</w>
la h</w>
l :</w>
know led
inves tieren</w>
i tion</w>
ful l-
f eu
ev alu
erforder lichen</w>
de ad
contribu tion</w>
but ed</w>
begrenz t</w>
adv ances</w>
ab rup
Wechselkur se</w>
Th om
Mich ael</w>
Mc C
K auf</w>
Institu tion</w>
H ab
Durchschnit t</w>
Bash ar</w>
2 9</w>
( $
Äng ste</w>
wro te</w>
wor se,</w>
ver einig
strateg y.</w>
st elle</w>
ro wer
ris h</w>
prot est</w>
peop le
k lin
h ang
fri ends</w>
et ’s</w>
enti t
eh men</w>
cle ar.</w>
ch ain</w>
asy mmet
Konflik ten</w>
Jacqu es</w>
Gerich ts
FOR D</w>
E ver
Chin a
Bewe gungen</w>
Ab schreck
tri fft</w>
trans form</w>
tra v
te ten,</w>
sti schen</w>
sett le
recht liche</w>
r y,</w>
plann ed</w>
pap er</w>
oper ate</w>
m at</w>
gesch lossen
el ek
dramati sch</w>
deci sive</w>
b adly</w>
anz un
Wähl ern</w>
Ver träge</w>
Süd afrika</w>
Rich ter</w>
L es
E very</w>
- up</w>
über prü
z äh
tier ende</w>
threat ens</w>
ten der</w>
ten -
te ter</w>
ster .</w>
senk en.</w>
ro le.</w>
repres ented</w>
re u
poll s</w>
möglich .</w>
lich e,</w>
lear ning</w>
is tischer</w>
heiß t,</w>
gesetz ten</w>
geleg ten</w>
cy ber</w>
an ger</w>
ali en</w>
Indon esien</w>
Gelegen heit,</w>
Ein er</w>
E ach</w>
Demon stranten</w>
Begri ff</w>
? ”</w>
y ,”</w>
wei b
weak ening</w>
um strit
säm tliche</w>
surpri se</w>
sudden ly</w>
sch licht</w>
populisti sche</w>
parti s
op ho
notwendig ,</w>
mi th
kti ken</w>
in ländi
her o
har m</w>
ful fill
end gül
empha sis</w>
eh en.</w>
ed en,</w>
ed ;</w>
deu ten</w>
condi tions,</w>
ann äher
Wirtschaf t
Süd kore
St rom</w>
Spiel raum</w>
Sp eci
Shi a</w>
Repräsent anten
Posi tionen</w>
Multi later
Liquidi täts
K ürz
Geh ir
E hr
Besei tigung</w>
“ a</w>
zip lin</w>
world 's</w>
wer te</w>
surpri singly,</w>
ster ben</w>
stabilit ä
sp f
revolution ary</w>
retur ned</w>
purch ase</w>
play ers</w>
no ch,</w>
nimm t,</w>
mone y.</w>
kei ten.</w>
it ’s</w>
gu id
f ällen</w>
f li
ent spricht</w>
enjo y</w>
direc tion.</w>
Yo u</w>
Un sicher
N P
Li cht</w>
Ch i
Britain ,</w>
Bes itz</w>
” .</w>
winn ing</w>
w ü
ver schwin
thir ds</w>
success fully</w>
stei gern</w>
si x
palästinen sische</w>
mone y,</w>
middle- income</w>
lag en.</w>
government s.</w>
er lang
cyc lical</w>
ben ach
beg ünsti
Sol ar
Selbst verständlich</w>
S lo
Qaed a</w>
N one</w>
Komp et
Jahr est
Institu tionen,</w>
Gesam tnach
Cha ir
Ber ech
Agr ar
wär en,</w>
un ited</w>
twenty- first</w>
si s,</w>
second ary</w>
sch ür
recover y.</w>
pres ented</w>
par ents</w>
opport uni
mark tes</w>
leader ship.</w>
leader s.</w>
in a</w>
erreich t.</w>
dis appear
d n’t</w>
contin ent</w>
ad verse</w>
accom mod
U g
Th ak
Sch ad
Revolu tion
Poli zei
Nul l
Mubar ak</w>
Leban on</w>
J ews</w>
A tt
weal thy</w>
uni on.</w>
underp inn
sur ge</w>
su ici
sc ap
risk s.</w>
re d.</w>
prolifer ation</w>
politi ker</w>
partner ship</w>
nutz en.</w>
no tion</w>
milit ar
frequ ently</w>
er ous</w>
environ ment.</w>
doppel t</w>
clim ate-
benef ited</w>
anschließ end</w>
an thro
Ver sorgung</w>
Sh angha
Portug al</w>
Mexico ,</w>
Er wachsen
E t
B in
Öff nung</w>
y al</w>
visi ble</w>
vers äum
vermei den</w>
thre e-
stell t,</w>
st ories</w>
sol ches</w>
resc ue</w>
rech ts</w>
proc esses</w>
n äher
n ine</w>
it y’s</w>
irak ischen</w>
häl t,</w>
f at</w>
enc es,</w>
darstell t.</w>
coun t</w>
consist ently</w>
betri fft</w>
Rendi ten</w>
Medi kam
Invest ment
Er de</w>
Direk t
Deut schen</w>
C .</w>
Be fore</w>
un gewöhn
t te</w>
re ad</w>
politi k
pay ment</w>
par aly
ine j
il s</w>
happ en
geseh en,</w>
gel an
exerc ise</w>
ever -
con gres
ath er,</w>
arrange ments</w>
appar ently</w>
alle l</w>
Wechselkur s
S ä
Pakist an’s</w>
Net an
N A</w>
Metho de</w>
Man agement</w>
Imp eri
Fir st</w>
F al
Debat ten</w>
B ann
verpflich tet</w>
ump h</w>
tren n
test s</w>
televi sion</w>
taus ende</w>
schi ck
parti es,</w>
or thodox
no ch:</w>
n d</w>
longer- term</w>
isch erweise</w>
inevit able</w>
ess or</w>
encoura ged</w>
ein sei
conc ei
aus ü
approach .</w>
Wor ten</w>
S timmung</w>
Righ ts</w>
Proble me,</w>
Koh le
Kenne dy</w>
Führungs rolle</w>
ück e</w>
überwäl ti
Über prü
w ächst</w>
verfü gen,</w>
tor d
s cre
pursu ed</w>
nu kle
n ul
limit ing</w>
im posing</w>
g ut
fal se</w>
fahr ts
em ,</w>
comp uter</w>
cha o
auf er
arbei tung</w>
ani scher</w>
ander erseits</w>
abgel ehn
Ver tra
Thre e</w>
Netan jah
Depart ment</w>
weiter .</w>
stech nologi
statt fin
re tär</w>
n ai
li ved</w>
inter essen</w>
intellec tu
hin weg</w>
geprä gt</w>
g reifen</w>
erg ri
bedeu ten</w>
as en</w>
Ziel ,</w>
Sü do
Mis sion</w>
Mar x
Durchschnit ts
D et
Beispiel sweise</w>
Aspek t</w>
( M
verantwor tungs
ver halten</w>
us ers</w>
tradi tion</w>
steigen der</w>
sensi ble</w>
schul dig
ru g
program ,</w>
op eri
on er</w>
objec tives</w>
nucle ar-
lei den
komp le
issu e.</w>
invest ed</w>
gener ating</w>
g ing.</w>
exam ples</w>
ern ann
constrain ts</w>
bezahl t</w>
beg ri
ausge geben</w>
an spru
Wer ten</w>
Welt wirtschafts
S at
P ani
K eine</w>
Jus tice</w>
Gipf el
Bürger krieg</w>
Bernank e</w>
Atom waffen
überzeu gt,</w>
Ö ko
viol ence,</w>
ver zi
unweiger lich</w>
u de</w>
ter ri
stim men</w>
spar tei</w>
securi ties</w>
reve aled</w>
respon ded</w>
particip ants</w>
parli ament</w>
or ts</w>
occup ied</w>
minim um</w>
ex i
er zähl
er ter</w>
em it
dar stellen.</w>
bilater ale</w>
betroff enen</w>
af f</w>
Ver folg
V ir
Quar tal</w>
Bud get</w>
Arab ischen</w>
z a</w>
unter st
t y’s</w>
stärk en,</w>
st on</w>
schw ach</w>
schein t,</w>
sag t</w>
program .</w>
over se
näh er</w>
künf tige</w>
jord an
initi ally</w>
il ed</w>
hät ten,</w>
ff en.</w>
equ ality</w>
ens wert</w>
enough .</w>
ec o
contro l
contra st</w>
charg es</w>
beli ef
Win d
West jordan
Unterdrück ung</w>
Um wel
Sch rö
Ru f</w>
Orbá n</w>
IWF -
Cri me
Ausbil dungs
Ö ster
techni schen</w>
survi ve</w>
st ein</w>
shock s</w>
r ent</w>
poll u
par ty,</w>
le y</w>
kn app</w>
incom e,</w>
g nisse</w>
fan gen</w>
er fordern</w>
ei ger
di ent</w>
conflic t,</w>
avo id
ag on
Pro du
O M
Nachhal tigkeit</w>
NA FT
Mäch te</w>
E isen
Bran chen</w>
6 5</w>
wirtschaf t,</w>
wel le</w>
ut ing</w>
unterg rä
tur ns</w>
ti er</w>
surpri sing</w>
sozi al
pun ish
po or,</w>
pack age</w>
owner ship</w>
organis ationen</w>
n un
k en,</w>
ger aten</w>
gel d</w>
foreign- policy</w>
f ate</w>
en gen</w>
dra wing</w>
dis cre
d ank</w>
bor rower
bedroh t</w>
ange wiesen</w>
Ver kehr
Un g
M isch
Lebens standard</w>
Geschä fte</w>
D omin
Bes atz
Atlan tic</w>
Ama z
20 5
vern ach
schn elle</w>
rä u
ob s
new ,</w>
neighbor ing</w>
invol ve</w>
her e
führ te,</w>
for e,</w>
enc y.</w>
emission s.</w>
der ed</w>
curren cy.</w>
aus gewo
a bet
W illi
U l
Tit el</w>
Ma ast
Kol umbi
Ira k,</w>
Am ong</w>
7 ,
viel versprech
ver schw
ungs weise</w>
unge achtet</w>
ture ll
ti me
some what</w>
so dass</w>
shif ting</w>
priv ater</w>
offizi ell</w>
niedri geren</w>
län der,</w>
leich ter</w>
itsel f,</w>
hör en</w>
harm ac
fundament ally</w>
favor able</w>
extra ordinary</w>
emi cal</w>
divi de</w>
conven i
c e-
best än
Ziel en</w>
Vereinbar ungen</w>
Tu ber
Respek t</w>
Pres se</w>
K as
German s</w>
Bil anzen</w>
Arbei ter
z en,</w>
yiel ds</w>
wor ried</w>
vor her</w>
trig gered</w>
ter ran
stabil en</w>
sor ge</w>
schw ank
por tra
need s.</w>
mi schung</w>
mechanis men</w>
lich ste</w>
lack s</w>
hoch wer
gew on
g al
erziel t</w>
deu tet</w>
au shal
at ori
ari sierung</w>
am a</w>
Wiederauf bau</w>
Wel tord
S ech
Mod elle</w>
Kre b
K i
Gegentei l:</w>
Al i</w>
wa ste</w>
substanti ally</w>
reich sten</w>
quar ters</w>
indi rek
in duc
hear d</w>
erfolg reichen</w>
auf rechter
aim s</w>
Welthandel sorganis
W eb
Stell ung</w>
M ann
Itali ens</w>
In n
B efu
Auf gaben</w>
200 8-
1 50</w>
ä le</w>
writ ten</w>
valu es.</w>
tivel y.</w>
sophistic ated</w>
plac e,</w>
perio d,</w>
particip ate</w>
ol der</w>
lie ber</w>
k ill</w>
important ly,</w>
ha be,</w>
geb or
fuel ing</w>
explan ation</w>
earn ings</w>
dist ingu
big u
Vermögen s
T ö
Syri a’s</w>
Nu clear</w>
N ex
N ew
Me er</w>
Inter net
Hist ori
Entsch lossen
Ak tionen</w>
zer o-
z ed
z ation.</w>
u re
soldi ers</w>
schri eb</w>
resear chers</w>
ren z</w>
pl um
p ho
mäch te</w>
mittel n</w>
jen e,</w>
je op
ent ered</w>
elec tions.</w>
ear th
de flation</w>
bom b
bail out</w>
alismus ,</w>
aff ir
Verbrauch er
To day’s</w>
Koh le</w>
Intel lektu
EZ B-
Atmo sphäre</w>
Ar e</w>
Alli anz</w>
woll te</w>
wenig sten</w>
re action</w>
par lament
lin ie</w>
konserv ativen</w>
it i</w>
geführ te</w>
fas c
exist ence</w>
conduc t</w>
cent rali
bil l</w>
akzep tieren,</w>
agri culture</w>
Stra ße</w>
Pf lan
Op tion</w>
Neu e</w>
Milit ä
M arg
B ol
„ Die</w>
way s.</w>
un sustainable</w>
türk ische</w>
system en</w>
super vis
schw ä
p lo
ou ts</w>
open ly</w>
off .</w>
nah me
m au
grenz überschrei
gesch ehen</w>
gefähr lichen</w>
evol u
every where</w>
erneuer bare</w>
ent stehen</w>
derzei tige</w>
de gra
appro val</w>
ac tion,</w>
Wirtschafts leistung</w>
Stabili sierung</w>
Rech nung</w>
Pakist ani</w>
Minder heit</w>
Mand at</w>
Land es.</w>
K atastroph
In dex</w>
Entwickl ung,</w>
Bal kan
B ,</w>
Aus land
7 .
zw anz
zu ver
wei ch
v ,</w>
th ing.</w>
st ör
st uf
schwieri ge</w>
ries igen</w>
re view</w>
plan ts</w>
partis an</w>
pa th
nachhal tiger</w>
n ess
multilater ale</w>
m bol
in ed
ha di
fossi l-
fal schen</w>
et s,</w>
erst mals</w>
ep iso
en ess</w>
ell en,</w>
childr en,</w>
cat eg
bur g</w>
b ann
all erd
Wh o</w>
Musharra f</w>
Klim a</w>
K önn
Er st</w>
Di ejen
D em</w>
C lau
AIDS ,</w>
( though</w>
( a</w>
Äu ßer
wer fen</w>
unden e</w>
um zusetzen.</w>
ter ing</w>
te ur
st el
ser ving</w>
schlag en.</w>
res ist</w>
ren minbi</w>
politic al,</w>
or der,</w>
nis ch</w>
inves tieren.</w>
inter nen</w>
i e,</w>
har d-
fü llen</w>
fl ü
en ge</w>
ein s</w>
dru g
discus sions</w>
der -
contro versi
ci li
besch ädig
beige tragen,</w>
bedeut enden</w>
ausge prä
anfäl lig</w>
ander e,</w>
Spar maßnahmen</w>
Mechanis men</w>
M ili
I A
veran las
un konvention
trig ger</w>
sp ir
sieh t,</w>
sch ad
recession ,</w>
prognosti zier
kün fte</w>
kontro llen</w>
ing ;</w>
in o
ide al</w>
hil f
h em
er eig
er :</w>
drän gt</w>
dre w</w>
contribu tions</w>
ber au
annivers ary</w>
Ver lier
Tai wan
Republi kan
Notwen digkeit,</w>
Mom ent
Kö ni
Gre mi
Extrem isten</w>
Erkenn tnisse</w>
Dok um
Bro thers</w>
Aut os</w>
Ab schluss</w>
8 00</w>
worldwi de.</w>
valu able</w>
u tili
tiv es.</w>
stit utes</w>
stat ement</w>
stark er</w>
solu tion.</w>
simil arly</w>
ran g</w>
pain ful</w>
ou tri
ori zon
no -
man n</w>
m es,</w>
loss en.</w>
lea st,</w>
hom es</w>
hei gh
gu ide</w>
gewährleist en.</w>
gener ations</w>
fri eden</w>
erhöh t.</w>
enforc ement</w>
effec tiveness</w>
citiz ens
ch s
bir th</w>
bewe gen,</w>
ar tigen</w>
Sch weden</w>
Präsidentschafts kandid
Protektion ismus</w>
Nigeri a,</w>
Konzern e</w>
It ’s</w>
Investi tion</w>
Inform ation
I D
Fre unde</w>
C lear
B an</w>
Aust ausch</w>
zufried enheit</w>
wissenschaft ler</w>
urg ently</w>
tiv es,</w>
stimm t</w>
stark es</w>
st ung</w>
st ress</w>
sm art</w>
re con
quantit ativen</w>
nis se,</w>
m ili
hy dro
gra v
exper ti
erwar tet,</w>
did n’t</w>
bil anz</w>
betrach tet,</w>
benö tigt</w>
bar es</w>
auf nahme</w>
angem essen</w>
abro ad.</w>
Ver bot</w>
Qu ellen</w>
Politik .</w>
O ze
Mob il
Kredit geber</w>
Kop en
Georgi a</w>
G aul
Energi equ
Belast ung</w>
ur teilung</w>
tradition ell</w>
tig ungs
techni sche</w>
roo ted</w>
rat en,</w>
provi sion</w>
prei sen</w>
predic t</w>
konn te,</w>
instru ments</w>
free- trade</w>
enterpri ses</w>
ek u
da cht</w>
bedeut en,</w>
ad o
Zu r</w>
Um struktu
Spek tru
Som e
P har
LI N</w>
Ko ordin
Hur ri
Her e,</w>
Ha ving</w>
H or
Führung sper
Ab stimmung</w>
w et
stei l</w>
ste el</w>
se g
sch ol
ran ken</w>
ph as
interven tions</w>
insi st</w>
hum ili
fl uss</w>
ergi bt</w>
er rich
ent ren
da vor</w>
bekann ten</w>
Wer tsch
Staat en.</w>
Rom a</w>
Palest ine</w>
Man gel
M OS
Kyo to</w>
G as</w>
E qu
Bu ch
Bo den
Auf wertung</w>
Auf ru
1990 ’s,</w>
199 4</w>
( C
är m
zusetz en</w>
t less</w>
stra c
so genannten</w>
schaft spf
roo t</w>
righ tly</w>
p are</w>
nis ses</w>
inter ess
identifi ed</w>
har ten</w>
ent ly.</w>
e ,”</w>
defl ation
dam aging</w>
character ized</w>
bring t.</w>
be kämpfung</w>
an s’</w>
Y em
TP P</w>
Reicht um</w>
Portug al,</w>
Kamp f
Inform ation</w>
Hinder nisse</w>
Ever y
Ein dämm
Diskrimin ierung</w>
C )</w>
2 6</w>
zu tief
work ers.</w>
ursprüng lich</w>
territ or
spartn er</w>
senti ment</w>
seek s</w>
s le
region aler</w>
re tain</w>
radik ale</w>
qu alität</w>
nicht -
indi rec
he utzutage</w>
go tten</w>
genü gend</w>
geh enden</w>
g utes</w>
fan den</w>
ex z
ethni schen</w>
beträcht liche</w>
Wachstum ,</w>
Ver sicherungs
Ver brauch</w>
Thom as</w>
R um
O ther
Nach kriegs
Millenni um</w>
Kol oni
Kingdom ’s</w>
Instru ment</w>
Holl ande</w>
Hig h</w>
Greensp an</w>
En des</w>
Durch setzung</w>
Chira c</w>
Bus iness</w>
vo ice</w>
terror ists</w>
symbo li
stand en,</w>
respon ses</w>
m einen</w>
lei det</w>
konzent riert</w>
gestell ten</w>
geo politischen</w>
gem essen</w>
evi den
eth ical</w>
coordin ated</w>
cooper ation.</w>
bei der</w>
advoc ates</w>
Ver sion</w>
UK ’s</w>
Nor mal
Liby a</w>
Konfron tation</w>
Konflik ts</w>
K las
Ire land</w>
Dä ne
weak ness</w>
weak ened</w>
um s,</w>
tri al</w>
tra vel
ti smus</w>
supp lies</w>
sup eri
standard s.</w>
so und
sich ern.</w>
secre t</w>
run ,</w>
res id
re member</w>
qu alit
predic t
peac e.</w>
on to</w>
occup ation</w>
ma d</w>
l ü
k tion</w>
interest ed</w>
ide ology</w>
go od.</w>
geb rau
fol gende</w>
effizi ent
co h
blo ß</w>
betru g</w>
ac t,</w>
T ages</w>
Sen ate</w>
Saudi s</w>
R -
Mar sh
Lin ke</w>
Kredi ten</w>
Glau ben
G ord
B U
$ 1</w>
wirk liche</w>
ver lassen,</w>
umfas st</w>
tra t</w>
struktu relle</w>
steiger n.</w>
stand es</w>
regime ’s</w>
re ality,</w>
pre pare</w>
p ump
k oppel
invest ors,</w>
im mig
hy per
harmac eu
er y</w>
down ward</w>
compon ent</w>
cht es</w>
ch st
c o</w>
Zivili sten</w>
T or
Rech t,</w>
Pek ing</w>
Il lu
Gewerk schaften</w>
Febru ary</w>
Fat ah</w>
Extre mis
Be wertung</w>
Arabi a,</w>
ö st
z ed,</w>
wel cher</w>
wei tem</w>
vollstän dige</w>
volati lity</w>
um welt
two- thirds</w>
stän dig
stal gi
sa h</w>
rul es.</w>
rul es,</w>
or ity,</w>
ok ing</w>
o t</w>
klu s</w>
great ly</w>
gest änd
geld politischen</w>
geld politische</w>
ga be,</w>
fres h</w>
folg en.</w>
f abri
ex pos
erziel en.</w>
cul tur
ant s.</w>
an n</w>
UK ,</w>
R ather,</w>
Prei sen</w>
Parlaments wahlen</w>
Nachfol ger</w>
Moderni sierung</w>
M ärk
M ol
Jose ph</w>
Inte gra
Govern ment</w>
Besorg nis</w>
Berich ter
200 6,</w>
196 7</w>
00 .000</w>
" .</w>
war ten,</w>
undermin ed</w>
tax es,</w>
struc tur
schul den
sch t</w>
ru le.</w>
pu t,</w>
promin ent</w>
measu red</w>
level s,</w>
ger et
f it</w>
dies .</w>
ch em</w>
break ing</w>
ak tive</w>
Wei ßen</w>
Parli ament
Palästin a</w>
Er träge</w>
Eigent um</w>
Chair man</w>
C al
199 5</w>
ü hr
wi den
us e.</w>
unilater al</w>
ul dig
ten ds</w>
tal k
st ür
st ake</w>
sever ely</w>
s i</w>
re präsen
re ject</w>
mist ake</w>
l äh
konkre te</w>
invol ving</w>
inform al</w>
in side</w>
häl t.</w>
glob ales</w>
gewähl te</w>
found ation</w>
excep tion</w>
er fas
en rich
di ox
compani es.</w>
co st-
appoin ted</w>
administra tion,</w>
ac tively</w>
Stad t
Periph erie</w>
Mar k</w>
Ken y
Fin ance</w>
Di vi
Überein kunft</w>
wettbewerb sfäh
verschlim m
spec tac
sligh tly</w>
shar es</w>
r uns</w>
quo ten</w>
profi tieren,</w>
poor er</w>
par allel</w>
nar row
le gen
konkur rier
komplex en</w>
innov ations</w>
industr y,</w>
handel t,</w>
h ed</w>
dis proportion
der ing</w>
c ast</w>
c am
begrenz ten</w>
ank ur
al beit</w>
Vor feld</w>
Verk auf</w>
Ver sagen</w>
Ukrain e.</w>
Repres ent
P et
Möglich keiten,</w>
Män nern</w>
Imm ig
H ard
Entscheidungs findung</w>
D as
Bo ard</w>
200 4,</w>
Ö konom</w>
ver treten</w>
ver mehr
us ly</w>
ti le</w>
purchas ing</w>
lo ser
konzentrier en.</w>
integra tion.</w>
geh andel
es “</w>
erle b
entreprene ur
emo tion
ehemali ger</w>
d d
com po
brei ten</w>
bet ter.</w>
b üro
aus gestat
ankur bel
am bigu
ab seh
Zu geständ
Ukraini an</w>
Sud an</w>
Lu ft</w>
Kon g</w>
Her z
Aus sch
wi esen,</w>
tor en,</w>
terror ism,</w>
targe ting</w>
tain ed</w>
schlim m
ph y
persist ent</w>
percep tion</w>
os exu
o ok
män n
lie gende</w>
lei den.</w>
hei l
globaliz ation,</w>
gesch ick
er ungs
eg al,</w>
de als</w>
chines ischer</w>
bezahl en</w>
be auf
at es.</w>
assess ment</w>
anc es.</w>
an f
ach tung</w>
Un less</w>
Partner ship</w>
Par ty,</w>
Länder .</w>
Lin ken</w>
L ul
K is
Inte g
Gesundheits versorgung</w>
Ernähr ung</w>
Der eg
Bush- Administration</w>
Bundes staaten</w>
ta g</w>
surpri s
sun ni
ste ad
sk y</w>
s sen</w>
re d,</w>
produc tion,</w>
member s,</w>
gi f
ei l</w>
don ors</w>
disa stro
cour se.</w>
con firm
assump tion</w>
am ,</w>
allerd ings,</w>
Wirtschafts -</w>
Welt bevölkerung</w>
V alle
Medi terran
M auer</w>
Konkur renz</w>
Kon text</w>
En th
E d
Arbeits losig
An lei
Ab schaffung</w>
A P
A L
zutief st</w>
tor y</w>
tari ff</w>
sub -
qu ick</w>
punk t,</w>
projec ted</w>
poll ution</w>
pla ys</w>
pl ent
mittel s</w>
mis e</w>
medi a,</w>
kam ,</w>
inc or
hom e,</w>
gesell schaften</w>
füh len</w>
four th</w>
experienc ing</w>
eg al</w>
du ce</w>
co ast
begrenz te</w>
W o</w>
T eu
Proble m,</w>
Partei ,</w>
Mosk au</w>
Maß nahme</w>
H ände</w>
Ge wi
Ein wohner</w>
BRI C
5 %.</w>
200 3,</w>
ös er</w>
° C</w>
won der</w>
ver standen</w>
ver mögen</w>
tur bul
transform ed</w>
st ets</w>
st eri
spar tei
si m
risk ,</w>
respon ding</w>
reduzier en.</w>
re ver
posi tiv</w>
posi tion.</w>
o ligarch
nutri tion</w>
niedrig ere</w>
n s,</w>
monopol y</w>
m exi
lik eli
iz ation</w>
höch st
ey es</w>
euroz one.</w>
employ ment,</w>
den omin
declin ed</w>
corrup tion,</w>
ch te.</w>
brauch t,</w>
bewe gen</w>
Wandel s</w>
Vorstell ung,</w>
Tur bul
St ellen</w>
Selbst mor
Inter ess
Hypothek en
Hai ti
G addaf
Erinn erung</w>
Demokrati e,</w>
Dec em
D or
Counc il,</w>
Brutto in
Bla ir
Bewus stsein</w>
Berich te</w>
An lage
Ak tivisten</w>
Afghanist an.</w>
. .</w>
verpflich tet,</w>
verk örper
ver nicht
troub le</w>
trei ben</w>
ta gi
steck t</w>
rul ers</w>
requ iring</w>
rec ru
ninete enth</w>
ma themati
li qui
lern en</w>
jung er</w>
in come.</w>
ground s</w>
glau bt,</w>
fur ther.</w>
ex trac
ermöglich t,</w>
diesel be</w>
con vince</w>
ch emical</w>
bri ef
be am
activi sts</w>
Wohl er
Sol ange</w>
Rek ord
Regulierungs behörden</w>
Re por
L en
Hus sein</w>
Gegen zug</w>
Demo cracy</w>
BER LIN</w>
week ,</w>
vi c</w>
ver weiger
tivel y,</w>
succe eded</w>
second -
ri se.</w>
overwhel ming</w>
over .</w>
nor ms</w>
ma p</w>
lau tet</w>
kapit al
inequ ality,</w>
ho wever</w>
ha z
ff t,</w>
erh in</w>
embrac ed</w>
electri c</w>
complic ated</w>
capit al-
bei tragen.</w>
ass ess</w>
acceler ate</w>
WH O</w>
Verwal tungs
Verhalten s
T ok
Men gen</w>
K aliforni
Imm erhin</w>
Bes teuerung</w>
Anrei z</w>
über aus</w>
tief e</w>
sustain ability</w>
sh el
re vol
prosper ity.</w>
orientier ten</w>
ong side</w>
low- carbon</w>
k at
k as
innov ation,</w>
in effizi
fin ds</w>
effek tiver</w>
ed )</w>
displac ed</w>
disc uss</w>
cre ative</w>
ch rist
attemp ting</w>
asset s,</w>
asi de</w>
argumentier t,</w>
ach t
abro ad</w>
Wirtschaftswachst ums</w>
Türkei ,</w>
Singap ur</w>
Machth aber</w>
L O</w>
Handels -</w>
Bush ,</w>
Brett on</w>
Betei lig
Ärz te</w>
z ung</w>
wri te</w>
wirtschaft liches</w>
ver zerr
ver schi
ve de
unter schätz
um p</w>
territ ory</w>
survi val</w>
stabili ze</w>
st ated</w>
sensi tive</w>
re pa
pursu it</w>
pe ak</w>
p ft</w>
mit ,</w>
kl en</w>
fa ire</w>
dre am</w>
draw n</w>
de par
autorit ären</w>
author it
Steuer einnahmen</w>
Rec ent</w>
Qu ali
O ver
Mosco w</w>
Mob ilit
Med vede
Konzent ration</w>
Gen au
Ged anken</w>
Fund ,</w>
Faceb ook
Er der
Educ ation</w>
Bestreb ungen</w>
Al an</w>
Ab u</w>
195 0
“ We</w>
wür dig
wissen schaften</w>
weapon s.</w>
un eingeschränk
toge ther,</w>
tief er</w>
te te.</w>
su che</w>
stab ile</w>
st aff</w>
she et</w>
sh ,</w>
improvem ents</w>
impro vement</w>
ha be.</w>
forc es.</w>
erwei sen.</w>
durchschnit tlichen</w>
don e.</w>
dien st</w>
deb ates</w>
de vis
bekann t,</w>
ati c</w>
ar en
andin avi
an lagen</w>
al so,</w>
acknow ledge</w>
